<unk>	0
<s>	0
</s>	0
▁	-4.01981
▁D	-4.12632
,	-4.22164
IV	-4.2219
n	-4.36758
a	-4.53164
ə	-4.65544
▁və	-4.74919
.	-4.76582
i	-4.8107
da	-5.003
-	-5.08135
▁bir	-5.10787
nin	-5.13145
in	-5.14967
▁-	-5.17037
▁ilə	-5.20645
də	-5.27595
ın	-5.39438
▁“	-5.39803
nın	-5.42803
▁ki	-5.45787
▁Azərbaycan	-5.52588
”	-5.53308
lar	-5.55562
dan	-5.63409
:	-5.65686
dən	-5.65724
▁bu	-5.76968
lər	-5.79231
▁"	-5.85043
r	-5.86453
ı	-5.86479
▁.	-5.89338
▁üçün	-5.93966
"	-5.9839
li	-5.98786
m	-5.9903
dir	-6.01336
lə	-6.01766
na	-6.0256
▁çox	-6.08462
la	-6.09098
ya	-6.11356
▁də	-6.1153
▁Bu	-6.24218
yə	-6.24895
dır	-6.26602
▁edib	-6.28409
▁kimi	-6.29335
▁baş	-6.32267
q	-6.33429
▁olan	-6.33806
nə	-6.33954
lı	-6.38315
▁isə	-6.38667
▁var	-6.38977
un	-6.39316
▁edir	-6.39751
▁(	-6.40465
▁–	-6.41343
▁bağlı	-6.41801
k	-6.4531
)	-6.47323
▁idi	-6.51766
▁görə	-6.52011
▁il	-6.55904
ci	-6.57655
▁da	-6.59
▁olub	-6.59071
▁sonra	-6.63691
ni	-6.64098
▁b	-6.64222
z	-6.66028
▁yeni	-6.66433
ları	-6.67123
▁Bakı	-6.67708
▁üzrə	-6.69392
▁daha	-6.70053
b	-6.71899
di	-6.72866
s	-6.74716
▁S	-6.75124
t	-6.75127
▁hər	-6.76142
az	-6.7633
▁Əliyev	-6.78745
dı	-6.79449
▁gün	-6.82447
▁Bir	-6.83029
l	-6.83498
si	-6.86875
▁xəbər	-6.8706
ləri	-6.88948
▁A	-6.9016
▁verir	-6.92147
inə	-6.93625
lik	-6.93892
▁:	-6.94403
▁Azərbaycanda	-6.95156
ş	-6.95476
▁haqqında	-6.96947
nı	-6.97829
▁ən	-6.99005
▁etdi	-6.99012
▁qəbul	-6.99549
▁İlham	-6.9994
▁Dövlət	-6.99968
▁dəfə	-7.00331
▁qeyd	-7.00953
▁2018	-7.00958
▁iki	-7.01459
u	-7.01778
▁M	-7.03993
▁arasında	-7.04614
▁heç	-7.05315
▁edilib	-7.05569
▁onun	-7.05592
▁qədər	-7.06964
▁keçirilib	-7.07526
▁qarşı	-7.08326
▁istifadə	-7.09387
▁nə	-7.09891
d	-7.10553
lərin	-7.10606
▁ABŞ	-7.10626
▁Prezident	-7.107
▁edən	-7.11212
ən	-7.11725
▁məlumat	-7.12009
▁etmək	-7.12997
▁T	-7.14284
ların	-7.15712
▁oldu	-7.16287
▁ildə	-7.16518
sı	-7.17728
▁bilər	-7.18133
▁barədə	-7.18667
▁B	-7.20155
?	-7.20917
▁davam	-7.20999
ndan	-7.21384
y	-7.22871
▁nəfər	-7.23123
an	-7.23651
▁olunub	-7.23964
▁Türkiyə	-7.24306
▁verib	-7.24817
▁20	-7.25169
▁ilk	-7.25512
▁Bakıda	-7.25672
ki	-7.28112
▁belə	-7.28246
▁min	-7.29751
▁tərəfindən	-7.30024
▁Milli	-7.30359
▁2	-7.30589
▁Avropa	-7.30716
▁Azərbaycanın	-7.3118
▁böyük	-7.32041
dakı	-7.32464
▁öz	-7.33814
inin	-7.35054
▁adı	-7.35126
▁olur	-7.3548
ma	-7.37038
▁O	-7.37578
ütün	-7.37632
nun	-7.38711
▁Rusiya	-7.39562
▁yer	-7.3985
▁Hər	-7.40265
▁VİDEO	-7.40573
lıq	-7.41019
ar	-7.41283
▁Onun	-7.41322
▁»	-7.4159
ini	-7.41838
▁o	-7.422
o	-7.4253
x	-7.43141
f	-7.43202
▁dövlət	-7.44011
▁olunur	-7.45515
▁zamanı	-7.47756
▁1	-7.47828
▁olaraq	-7.48027
▁Qarabağ	-7.48429
▁iştirak	-7.48589
...	-7.49534
cə	-7.49559
▁təqdim	-7.50966
▁Qeyd	-7.50998
▁ci	-7.51
h	-7.51183
▁15	-7.52165
▁18	-7.52389
▁təşkil	-7.52597
▁əsas	-7.53684
nda	-7.53716
▁ilin	-7.54434
▁H	-7.54697
e	-7.55097
▁Mən	-7.57051
▁yaxşı	-7.57214
▁onu	-7.57272
ov	-7.57371
▁daxil	-7.58205
▁K	-7.58296
▁deyil	-7.58616
▁Onlar	-7.58948
▁_	-7.59516
▁14	-7.60002
▁Baş	-7.60011
▁edək	-7.61852
▁s	-7.62293
ik	-7.62607
ir	-7.62718
▁3	-7.63685
ca	-7.64439
▁işlər	-7.646
▁FOTO	-7.64851
▁naziri	-7.64964
am	-7.6525
▁olar	-7.66185
▁Ə	-7.6706
▁edilməsi	-7.68131
▁Beynəlxalq	-7.68828
▁17	-7.69094
▁artıq	-7.69997
▁yol	-7.70167
▁şey	-7.7049
▁əvvəl	-7.70491
▁biri	-7.70927
▁başqa	-7.7108
▁təhsil	-7.71433
▁mən	-7.71615
▁onlar	-7.72113
al	-7.7251
▁ya	-7.73083
▁yoxdur	-7.73203
▁olacaq	-7.73444
▁milyon	-7.73744
▁Mərkəzi	-7.74366
▁hərbi	-7.74377
▁E	-7.7466
du	-7.75256
▁həyata	-7.75714
▁10	-7.75901
▁edəcək	-7.76012
▁saat	-7.76059
▁prezidenti	-7.762
▁neçə	-7.76794
ində	-7.77201
▁P	-7.7738
▁Ermənistan	-7.77498
▁13	-7.77747
▁bildirib	-7.78018
▁İ	-7.78398
▁Yeni	-7.78499
▁elə	-7.79516
▁verdi	-7.79569
▁Nazirliyi	-7.79695
Azərbaycan	-7.79727
adlı	-7.79877
▁xarici	-7.7993
▁Dünya	-7.80652
yi	-7.80666
il	-7.80747
▁keçiriləcək	-7.81049
▁Q	-7.81159
▁dünya	-7.81536
▁sədri	-7.81651
larının	-7.82116
▁vaxt	-7.82281
▁Heydər	-7.82344
▁4	-7.82705
▁sayı	-7.83071
sə	-7.83223
A	-7.83339
▁yaxın	-7.83359
▁olunan	-7.83385
▁iş	-7.83413
▁necə	-7.83567
▁ölkə	-7.83585
ona	-7.83632
▁insan	-7.83737
▁deyib	-7.83836
8	-7.8402
▁tarixi	-7.84067
▁orta	-7.84625
▁son	-7.84668
▁5	-7.84702
▁manat	-7.85186
ndə	-7.85625
cı	-7.85968
▁gəlir	-7.8613
▁milli	-7.86188
ҽ	-7.86275
▁Respublikasının	-7.86365
▁başa	-7.86454
▁təyin	-7.86674
▁olduğu	-7.87298
▁ola	-7.87344
▁«	-7.87459
▁olmuşdur	-7.87515
lərinin	-7.87556
▁Allah	-7.87654
▁həm	-7.87697
▁I	-7.87992
▁hava	-7.88662
vi	-7.89429
əm	-7.89489
▁hansı	-7.89656
sa	-7.89735
▁h	-7.89867
▁16	-7.899
kı	-7.89972
▁səbəb	-7.9075
▁az	-7.91455
▁F	-7.91565
▁inkişaf	-7.91901
cü	-7.92102
mağa	-7.92505
▁şəhər	-7.92569
▁digər	-7.927
araq	-7.92768
siz	-7.93877
▁cavab	-7.94512
ndən	-7.94776
mə	-7.94818
lərlə	-7.94914
▁gəlib	-7.95046
▁əldə	-7.95568
dur	-7.95744
▁yaşlı	-7.95922
ır	-7.96336
▁N	-7.96346
▁təmin	-7.96605
lara	-7.9666
▁edildi	-7.96797
▁etdiyi	-7.97334
ını	-7.97506
▁onları	-7.97734
▁qadın	-7.97831
v	-7.97978
maq	-7.97988
lərə	-7.98169
eynəlxalq	-7.98177
liyi	-7.98335
▁6	-7.98447
▁tək	-7.98485
▁çıxış	-7.98844
▁edə	-7.98932
▁geniş	-7.99133
ğı	-7.99481
T	-7.99537
▁gələn	-7.99727
▁dedi	-7.99835
▁həbs	-7.9989
▁nəticəsində	-7.99914
▁istinadən	-7.99973
▁deyir	-8.00194
▁oğlu	-8.00294
▁12	-8.00418
▁olunmuş	-8.00654
▁Sonra	-8.00704
▁növbəti	-8.00737
▁19	-8.00869
▁11	-8.00957
▁Əliyevin	-8.01091
ib	-8.01317
▁Respublikası	-8.01582
ü	-8.01686
▁olmaq	-8.02416
c	-8.02436
▁Lakin	-8.02474
ına	-8.02537
▁müzakirə	-8.02824
▁t	-8.02904
aq	-8.03033
lardan	-8.03505
▁qız	-8.03913
е	-8.04059
▁tələb	-8.04886
▁edilir	-8.04888
/	-8.04899
▁yolu	-8.05284
▁keçirilə	-8.0531
▁Əli	-8.05353
▁Prezidenti	-8.05447
▁azərbaycan	-8.06038
▁dili	-8.06361
▁rəsmi	-8.06737
▁işi	-8.07001
▁məsələ	-8.07073
▁kənd	-8.07242
Qarabağ	-8.0766
▁Yanvar	-8.07661
▁Amma	-8.07686
p	-8.08221
▁verən	-8.08437
▁elan	-8.08603
▁bəy	-8.0884
▁f	-8.09722
dək	-8.09903
mi	-8.09999
▁C	-8.10209
▁xidmət	-8.10279
▁yüksək	-8.10389
▁mətbuat	-8.10504
▁kəs	-8.10972
▁başçısı	-8.11102
im	-8.1152
▁yox	-8.11607
▁olduğunu	-8.11788
sən	-8.12236
▁gəldi	-8.12377
er	-8.12799
▁hesab	-8.13048
▁həmin	-8.13098
▁verilib	-8.13193
▁23	-8.13327
Az	-8.13468
on	-8.1349
▁fəaliyyət	-8.13559
▁müraciət	-8.13606
▁100	-8.13702
▁ağır	-8.1405
5	-8.14169
▁biz	-8.14302
ur	-8.14429
ması	-8.14602
▁Y	-8.14606
S	-8.1483
▁dollar	-8.14847
ri	-8.15011
▁neft	-8.15898
1	-8.16159
▁əsasən	-8.16252
▁Şurası	-8.16376
▁günü	-8.16387
▁əlavə	-8.17058
M	-8.17214
lu	-8.17266
▁Xalq	-8.17307
▁deyə	-8.17687
▁nəzərdə	-8.17795
▁əlaqədar	-8.17848
▁ev	-8.18243
▁m	-8.18286
▁başladı	-8.18728
▁azad	-8.18817
▁diqqət	-8.18825
▁həsr	-8.18917
▁)	-8.19004
▁sosial	-8.19047
▁şəkildə	-8.19089
▁xüsusi	-8.19102
▁Belə	-8.19143
▁adam	-8.1945
▁şəhərində	-8.19464
▁Ş	-8.19749
—	-8.20057
▁7	-8.20084
larını	-8.20747
▁sıra	-8.20999
ıb	-8.21016
▁R	-8.21234
larla	-8.21417
▁tədbir	-8.21549
ərzində	-8.22041
▁İslam	-8.22191
▁bizim	-8.22223
lərinə	-8.22563
ər	-8.22626
▁qərar	-8.22835
▁istinad	-8.23057
▁iqtisadi	-8.2328
▁ay	-8.23512
▁həyat	-8.23927
at	-8.23931
3	-8.23941
▁tez	-8.24149
▁qeyri	-8.24204
▁tam	-8.24224
▁lazımdır	-8.24341
▁mənim	-8.24465
▁q	-8.24598
ağlıq	-8.24959
▁Fevral	-8.25267
▁şəxs	-8.25278
▁siyasi	-8.25512
▁indi	-8.26019
lan	-8.26115
▁ikinci	-8.26348
▁birinci	-8.26735
▁Sumqayıt	-8.26849
▁rayon	-8.27161
çı	-8.27584
▁22	-8.27602
▁hazır	-8.27635
▁8	-8.27892
▁bunu	-8.28623
»	-8.28892
▁şəhəri	-8.29418
▁kişi	-8.29661
▁başlayıb	-8.29703
cu	-8.29749
▁erməni	-8.29964
▁məşğul	-8.2997
▁dair	-8.30012
▁qara	-8.30283
▁X	-8.30304
▁yeri	-8.30518
▁elmi	-8.30705
▁kim	-8.30722
▁Çox	-8.3074
▁hadisə	-8.31358
!	-8.31406
dəki	-8.31745
▁say	-8.31827
▁V	-8.31918
İ	-8.32044
▁su	-8.32221
▁İran	-8.32226
▁ç	-8.32316
▁edirdi	-8.32578
▁yenidən	-8.32636
▁olundu	-8.32793
▁Gürcüstan	-8.33047
▁yalnız	-8.33053
ti	-8.33535
▁idarə	-8.33564
▁İnsan	-8.33634
▁müavini	-8.34288
▁bəzi	-8.34631
▁gecə	-8.3468
▁rayonunda	-8.34682
▁azərbaycanlı	-8.34738
▁edilən	-8.34785
larda	-8.34904
▁uşaq	-8.35151
▁Ana	-8.35154
▁cəlb	-8.35398
▁Daha	-8.35519
▁yerinə	-8.35923
▁hərəkət	-8.35945
▁ana	-8.36161
▁alıb	-8.36293
▁Foto	-8.36328
▁tanış	-8.3649
mək	-8.36555
▁Burada	-8.36918
▁cinayət	-8.37802
lərindən	-8.37802
▁xanım	-8.3784
▁etməyə	-8.37865
▁mübarizə	-8.37969
indən	-8.38526
▁30	-8.38561
ının	-8.38776
▁zaman	-8.39086
Bu	-8.39177
▁prezident	-8.39205
▁etmişdir	-8.39228
man	-8.39231
▁tamam	-8.39444
▁əsr	-8.39851
▁Noyabr	-8.40237
▁Heç	-8.40239
▁edirəm	-8.40534
st	-8.40624
▁pul	-8.40733
lərini	-8.40795
▁21	-8.40846
▁məni	-8.41034
▁illik	-8.41094
6	-8.41236
▁məlumatın	-8.41414
▁altında	-8.4149
▁FOTOLAR	-8.41555
▁edilmişdir	-8.41748
miz	-8.41843
▁Ya	-8.4187
P	-8.42067
▁eyni	-8.42509
▁ciddi	-8.42754
▁məşhur	-8.42766
▁yerdə	-8.42863
D	-8.42923
▁d	-8.42926
▁Təhsil	-8.42929
sız	-8.42973
▁G	-8.4306
lərdə	-8.43149
ında	-8.43227
or	-8.43861
▁Z	-8.4387
▁qrup	-8.43883
▁hələ	-8.43977
▁kiçik	-8.44036
▁Sən	-8.44451
lərdən	-8.4502
▁Putin	-8.45334
▁səfər	-8.45357
▁hissəsi	-8.45366
▁sahəsində	-8.45393
▁əməl	-8.45486
▁Onları	-8.45799
▁əl	-8.45852
▁?	-8.45888
▁olması	-8.45947
▁Naxçıvan	-8.46233
▁qəzeti	-8.46249
▁uyğun	-8.46395
ilə	-8.46429
▁səhifə	-8.46507
larına	-8.46714
mı	-8.46796
▁müəllim	-8.47463
ət	-8.47569
K	-8.47615
▁maraqlı	-8.47869
▁İndi	-8.47935
▁siz	-8.47969
▁müxtəlif	-8.47985
larında	-8.48044
ab	-8.48132
▁ərazisində	-8.48161
gər	-8.48236
ış	-8.48385
▁qəza	-8.48432
▁Komitəsi	-8.48692
▁təklif	-8.48705
▁məqalə	-8.48707
▁insanlar	-8.48801
4	-8.48877
iya	-8.48923
▁təsir	-8.49023
ra	-8.49216
▁ayı	-8.49435
N	-8.49637
▁vəfat	-8.49766
▁burada	-8.50251
▁Azərbaycana	-8.50286
▁ata	-8.50487
B	-8.50634
su	-8.50641
▁keçirilir	-8.50709
▁yanında	-8.50772
▁faiz	-8.50861
likdə	-8.5113
▁Məmmədov	-8.51461
▁imkan	-8.51693
▁qar	-8.51704
məsi	-8.51791
▁qızı	-8.51796
▁Xaric	-8.51916
▁xalq	-8.52252
▁səs	-8.52314
sının	-8.52376
▁nazir	-8.52413
▁rayonu	-8.52735
yan	-8.52868
▁informasiya	-8.53502
▁görüşüb	-8.53605
▁rəhbəri	-8.53853
▁ildən	-8.54107
▁ara	-8.54529
▁özünü	-8.54886
▁Mətbəx	-8.5493
▁İcra	-8.54935
▁Ç	-8.54948
▁tərəf	-8.55003
▁Onu	-8.55147
lığı	-8.55318
luq	-8.55363
▁əmək	-8.55733
▁aid	-8.56142
▁çatıb	-8.56388
▁göstərir	-8.56397
▁Böyük	-8.56447
▁ifadə	-8.56686
▁icra	-8.57044
▁mənzil	-8.57225
▁qaz	-8.5724
ta	-8.57369
▁gözəl	-8.57626
▁ş	-8.57716
▁meydan	-8.57733
▁Qara	-8.57761
▁Ancaq	-8.57851
▁L	-8.5806
L	-8.58164
▁vardır	-8.58225
▁...	-8.58259
▁görüş	-8.58525
ey	-8.58602
▁qalib	-8.5879
▁ayrı	-8.58838
▁hiss	-8.59015
▁Elə	-8.59016
▁edirlər	-8.59102
▁xəbərlər	-8.59182
▁bil	-8.59208
▁Yük	-8.59347
▁layihəsi	-8.59361
▁olunacaq	-8.59424
▁həll	-8.59474
▁Xocalı	-8.59539
2	-8.59541
▁katibi	-8.59697
▁nəzarət	-8.59786
▁2017	-8.59804
▁fəaliyyəti	-8.59917
▁işə	-8.59935
▁işləri	-8.6
▁maliyyə	-8.60092
▁ailə	-8.60188
▁gənc	-8.60377
en	-8.60588
7	-8.60612
▁qan	-8.60715
bir	-8.60729
▁Son	-8.60838
ad	-8.6094
▁ediblər	-8.60946
id	-8.61022
Ə	-8.61026
▁sağ	-8.61117
▁tarixində	-8.61161
▁Ən	-8.61216
ım	-8.61505
▁verdiyi	-8.61843
▁gedir	-8.61898
xud	-8.61983
▁dilində	-8.62011
▁kitab	-8.62054
▁qədim	-8.62138
▁ibarət	-8.62147
▁Neft	-8.62155
▁Müddət	-8.62396
▁çərçivəsində	-8.62401
▁silahlı	-8.62489
▁bildirir	-8.62511
▁Türkiyədə	-8.62522
▁müəyyən	-8.62813
▁istehsal	-8.62946
▁k	-8.6342
mışdı	-8.63461
▁məhkəmə	-8.6347
▁əlaqə	-8.63694
▁Əsas	-8.63964
▁vəzifə	-8.6405
▁YENİLƏNİB	-8.64147
▁tətbiq	-8.64293
▁Fransa	-8.64335
▁lazım	-8.64521
▁Azərbaycanlı	-8.64767
▁Müdafiə	-8.64834
▁edilmiş	-8.64989
▁Rayon	-8.65548
▁vacibdir	-8.65687
▁keçirilməsi	-8.65745
siya	-8.66167
▁Siz	-8.66172
▁ətraf	-8.66208
çi	-8.66286
▁e	-8.66318
et	-8.66543
nu	-8.66777
▁dərəcə	-8.66798
▁məsələlər	-8.66861
com	-8.66907
san	-8.6708
▁uzun	-8.67156
▁İnformasiya	-8.67159
▁keçmiş	-8.6717
▁mövzusunda	-8.67174
larından	-8.67227
▁almaq	-8.67252
▁Məclisin	-8.67384
.11	-8.67416
▁qanun	-8.67493
▁ümumi	-8.67496
▁məlumatlar	-8.67519
▁ağ	-8.67856
▁olun	-8.68063
ul	-8.68222
O	-8.68298
▁daxili	-8.68458
▁Çin	-8.68677
▁sistemi	-8.68768
▁təbrik	-8.68799
▁BMT	-8.68802
▁əməkdaşlıq	-8.68805
▁yerləşən	-8.68809
▁edərək	-8.6882
▁məhv	-8.68873
▁rəhbərliyi	-8.69017
▁müddət	-8.69234
▁isti	-8.69668
▁kəndi	-8.6978
▁adını	-8.69829
▁Ra	-8.69843
▁içində	-8.69869
▁vaxtı	-8.69888
▁doğru	-8.70059
ğa	-8.70065
fiq	-8.70198
▁Sayt	-8.70222
▁istəyir	-8.70485
▁idman	-8.70505
▁verilən	-8.70571
▁polis	-8.70597
▁deməkdir	-8.70687
▁yaşayan	-8.70721
▁İlk	-8.70733
sini	-8.70877
C	-8.71122
▁Ona	-8.7145
▁başlayır	-8.71833
▁Agentliyi	-8.71854
miş	-8.72041
▁xey	-8.72044
▁Dekabr	-8.72159
▁Az	-8.72276
▁Sosial	-8.72321
▁illərdə	-8.72476
▁Mənim	-8.7248
▁yardım	-8.72569
▁şirkəti	-8.72744
▁keçir	-8.72768
▁media	-8.72824
▁mənə	-8.72853
▁sən	-8.73101
▁görüşü	-8.73107
▁ali	-8.73218
▁Biz	-8.73366
▁Əl	-8.73523
▁sözlərin	-8.73575
▁üzərində	-8.73588
▁illiyi	-8.73792
▁illər	-8.73807
▁AZƏRTAC	-8.73884
▁açıqlanıb	-8.73888
▁olmayan	-8.73915
▁Ali	-8.73923
▁ticarət	-8.73932
▁Video	-8.73964
▁məlum	-8.74008
ğ	-8.74077
▁direktoru	-8.74086
əlak	-8.74126
▁dəqiqə	-8.74207
▁Bizim	-8.74273
▁mərkəzi	-8.74345
▁inkişafı	-8.74445
▁əli	-8.7466
▁vəziyyət	-8.74673
▁aşağı	-8.74862
▁oğlan	-8.75039
iş	-8.75214
▁dağ	-8.75227
unda	-8.75367
acaq	-8.75415
▁Amerika	-8.75439
▁bunun	-8.75577
▁dərin	-8.75604
▁redaktə	-8.75638
▁sonuncu	-8.75638
▁təsdiq	-8.75688
▁Ərdoğan	-8.75688
▁birgə	-8.75793
E	-8.75867
▁qarşısında	-8.75907
is	-8.7622
Q	-8.76258
▁uşaqlar	-8.76364
▁oyun	-8.76369
▁mərasimi	-8.7638
ç	-8.76777
imiz	-8.77207
▁dini	-8.77283
▁üzvü	-8.77312
Neftçi	-8.77353
▁siyasəti	-8.77397
▁şəxslər	-8.77834
▁deyilir	-8.77888
lən	-8.77921
dığı	-8.78279
el	-8.78355
▁orqanları	-8.78692
▁yaşayı	-8.78903
▁işğal	-8.7895
▁ictimai	-8.79108
▁etiraz	-8.79136
▁rayonunu	-8.79163
mış	-8.79191
▁geri	-8.79251
▁olunmuşdur	-8.79431
▁fikir	-8.80011
▁vəziyyəti	-8.80165
mir	-8.806
▁Kənd	-8.80627
▁əks	-8.80833
▁demək	-8.8092
▁sual	-8.81035
▁ildönümü	-8.81082
üm	-8.8109
▁gedib	-8.811
▁İsrail	-8.81113
▁/	-8.81191
▁şəraiti	-8.81196
▁sadə	-8.81268
▁ölkədə	-8.81389
▁Cənub	-8.81526
ərək	-8.81968
va	-8.82177
sında	-8.8233
▁Xəzər	-8.82498
▁p	-8.82769
▁ziyarət	-8.82883
▁Tramp	-8.82981
ba	-8.82994
▁şah	-8.83066
▁üç	-8.83198
ka	-8.83235
▁İki	-8.83304
▁ayında	-8.83352
▁keçən	-8.83381
▁tədbirlər	-8.83579
ıl	-8.83624
sına	-8.83777
▁yerli	-8.83822
▁müqavilə	-8.83834
▁Gəncə	-8.83917
▁r	-8.83946
▁halda	-8.83958
▁xan	-8.84041
▁daş	-8.8422
▁heyəti	-8.8426
▁keçirib	-8.84618
▁dərs	-8.84665
▁qələbə	-8.84718
▁vitse	-8.84904
▁internet	-8.84906
▁amma	-8.84908
▁yayıb	-8.84938
▁səhv	-8.84941
▁2018-	-8.84967
▁münasibətilə	-8.85004
▁yenə	-8.8502
▁Digər	-8.85069
▁Rusiyanın	-8.85092
▁U	-8.85307
çılıq	-8.85424
▁aşkar	-8.85433
▁konfrans	-8.8545
▁çempionatın	-8.85453
▁cü	-8.85518
▁Həmi	-8.85818
I	-8.86126
lərində	-8.86214
▁bax	-8.86303
▁bina	-8.86315
▁çay	-8.86317
00	-8.86333
10	-8.86515
▁hadisələr	-8.8672
▁güclü	-8.86856
▁hücum	-8.86887
▁istəyirəm	-8.86914
▁gedən	-8.86973
▁açıq	-8.8703
▁е	-8.87041
▁istifadəsi	-8.87079
▁bağlıdır	-8.87113
▁həftə	-8.87459
▁Hüseyn	-8.87459
ran	-8.87685
▁rast	-8.88216
▁itki	-8.88232
▁Report	-8.88391
▁parlament	-8.88459
▁de	-8.88485
▁Ermənistanın	-8.8861
ıq	-8.88758
▁29	-8.88801
▁milyard	-8.88833
▁həmişə	-8.88866
▁artıb	-8.88871
0	-8.8889
▁Almaniya	-8.88951
tı	-8.88969
▁Suriya	-8.88975
▁Əliyeva	-8.88996
▁al	-8.89238
▁vermək	-8.89265
▁at	-8.89434
▁açıqlama	-8.8959
▁ərazi	-8.89611
▁çıxdı	-8.89643
▁9	-8.90176
▁din	-8.903
▁nümayiş	-8.90365
diyi	-8.90371
▁ləğv	-8.90488
ün	-8.90865
▁Yəni	-8.9091
▁gələcək	-8.90923
▁Mətbuat	-8.90963
▁Ötə	-8.90966
▁artır	-8.91115
..	-8.91135
▁terror	-8.91198
▁bal	-8.91213
▁Hazır	-8.91229
▁enerji	-8.91321
▁İş	-8.91347
siniz	-8.9146
ay	-8.91522
▁bakı	-8.91568
oloji	-8.91626
▁Məlumat	-8.91634
mışdır	-8.91808
unun	-8.91819
▁münaqişəsi	-8.92391
▁Həsənov	-8.92756
▁etibar	-8.92779
▁fəal	-8.9293
▁Həm	-8.92967
▁tutur	-8.92969
▁səhər	-8.9306
▁əməliyyat	-8.9321
▁layihə	-8.9325
ovun	-8.93306
▁dəniz	-8.93669
yanına	-8.93879
çu	-8.94002
▁xoş	-8.94317
▁müşahidə	-8.94406
▁əlaqələr	-8.94475
▁çəkir	-8.945
▁nümayəndə	-8.94514
▁May	-8.94654
▁müv	-8.94767
▁start	-8.94837
▁Bank	-8.95052
niyə	-8.95054
▁məktəb	-8.95082
▁Xatırlad	-8.95117
▁tibb	-8.95117
▁verilir	-8.95129
▁qalıb	-8.9513
▁həmçinin	-8.95133
▁yaxınlığında	-8.95137
um	-8.95202
▁məxsus	-8.95219
▁əsasında	-8.95238
▁y	-8.95258
zadə	-8.95261
▁Qazax	-8.95265
▁24	-8.9538
▁proqramı	-8.95401
▁Universiteti	-8.95444
▁müdafiə	-8.95621
niz	-8.96072
▁çıxır	-8.96119
▁hüquq	-8.96131
ax	-8.96198
sinə	-8.96233
▁Polis	-8.96445
▁hal	-8.96668
▁Nə	-8.96796
R	-8.97013
▁dil	-8.97089
▁bərabər	-8.9729
▁sərəncam	-8.9729
▁İdman	-8.9729
ləşmiş	-8.97329
▁olsa	-8.97334
▁olmalıdır	-8.97343
▁İdarəsi	-8.97426
Y	-8.97445
▁Hava	-8.97461
▁yazı	-8.97477
▁yanğın	-8.97548
▁nəticələri	-8.97586
▁verilməsi	-8.97639
▁haqda	-8.97684
▁seçki	-8.97707
▁Onda	-8.97775
▁bilmir	-8.97782
yin	-8.97813
▁”	-8.98232
Ş	-8.98299
▁getdi	-8.98318
▁xidməti	-8.98355
▁Şəhər	-8.98465
▁iclası	-8.98564
▁qaldı	-8.98575
▁qiyməti	-8.98606
rə	-8.98757
▁çətin	-8.99028
▁26	-8.99032
▁09	-8.99224
Bakı	-8.9926
▁qiymət	-8.99279
▁olunması	-8.99294
▁qadınlar	-8.99355
▁əhatə	-8.99512
▁Keçmiş	-8.99514
▁qısa	-8.99526
▁müh	-8.99531
▁satış	-8.99538
U	-8.99542
▁Mədəniyyət	-8.99576
▁tərk	-8.9961
▁rəhbər	-8.9965
▁kq	-8.99816
▁materialların	-8.99905
▁söz	-9.00144
...”	-9.00203
▁c	-9.00242
▁Kişilər	-9.00358
▁Nazir	-9.00534
▁dünyada	-9.00542
mız	-9.0075
▁sahibi	-9.00873
ologiya	-9.00916
▁münasibət	-9.01188
▁tut	-9.01199
▁müsabiqə	-9.01461
▁dəmir	-9.01523
▁medal	-9.0162
▁İkinci	-9.01679
▁danışdı	-9.01747
▁Birinci	-9.01785
▁keçib	-9.01826
▁təhlükəsizlik	-9.01826
▁Hərbi	-9.01851
▁Dəniz	-9.01858
▁on	-9.02007
▁məsuliyyət	-9.02116
▁fərqli	-9.0212
malıdır	-9.02147
Qəbələ	-9.02271
▁Əmək	-9.02539
▁Cümhuriyyəti	-9.02654
▁Sa	-9.02752
▁kənar	-9.02809
▁kredit	-9.02888
▁tədris	-9.02897
g	-9.02978
▁verildi	-9.02993
▁zamanda	-9.03069
▁Respublika	-9.0368
▁seminar	-9.0368
F	-9.03682
X	-9.03747
▁prosesi	-9.03763
▁aldı	-9.03791
▁Min	-9.03912
de	-9.04001
▁futbolçu	-9.04021
bi	-9.04075
▁imtina	-9.04111
▁İctimai	-9.04111
▁İŞİD	-9.04111
▁izah	-9.04114
▁İyul	-9.04116
▁atəşkəs	-9.04117
▁Qafqaz	-9.04149
▁Liqasında	-9.04183
▁etmişdi	-9.04192
▁bilərsiniz	-9.04198
▁şəxsi	-9.04282
▁adamı	-9.04531
▁hamı	-9.04573
V	-9.04663
Report	-9.04668
▁şərh	-9.04841
▁sahib	-9.05223
9	-9.05351
▁Universitetinin	-9.05379
▁Həyat	-9.05591
▁bayramı	-9.05607
▁üz	-9.05802
▁bazar	-9.05837
▁əhalisi	-9.0585
▁Şah	-9.05883
▁sənin	-9.05926
▁yaşa	-9.0615
▁Türk	-9.06297
▁məh	-9.06404
▁2017-	-9.06445
▁alınıb	-9.06507
▁MÜSAHİBƏ	-9.06517
▁gətirib	-9.0652
▁mənasında	-9.06524
▁daşıyır	-9.06526
▁APA	-9.0656
▁siyasət	-9.06569
▁dəvət	-9.06591
lük	-9.06797
▁Sabah	-9.0683
▁Deyə	-9.06855
▁avtomobil	-9.06894
▁qrupun	-9.069
▁işlə	-9.06976
▁aydın	-9.07184
▁Elmi	-9.07354
▁Universitetin	-9.07359
▁istiqamət	-9.07461
▁hakimiyyət	-9.07484
sını	-9.07497
▁təlim	-9.07577
sində	-9.07664
▁Avtomobil	-9.07675
it	-9.0783
▁qayda	-9.08206
izə	-9.08207
mişdi	-9.0833
▁Qurban	-9.0837
as	-9.08378
▁alır	-9.08383
dilər	-9.08417
tar	-9.08455
▁mədəniyyət	-9.08595
▁müğənni	-9.08931
▁yaradılıb	-9.08931
▁xilas	-9.08931
▁Bunlar	-9.08942
övq	-9.09002
▁çatdı	-9.0903
▁təbii	-9.09047
▁El	-9.09133
▁2016-	-9.09173
▁SOCAR	-9.09182
əcək	-9.09247
▁məşqçisi	-9.09327
▁nəzərə	-9.0948
▁Bəs	-9.09566
▁çoxdur	-9.09651
▁tənqid	-9.09717
▁qol	-9.09823
▁yük	-9.09902
▁üzvləri	-9.09979
▁yanaşı	-9.10325
▁cu	-9.10614
za	-9.10674
əl	-9.10694
liyə	-9.10743
▁Orada	-9.10843
▁rəisi	-9.10992
▁şeir	-9.11108
▁Ay	-9.11108
dar	-9.1117
▁qat	-9.11251
▁v	-9.11261
▁yan	-9.11271
▁müasir	-9.11326
▁təmsil	-9.1141
▁Hacı	-9.11424
▁kömək	-9.11427
▁Yeniyetmə	-9.11431
▁yuxarı	-9.11431
▁tutub	-9.11442
▁edərkən	-9.11464
▁elektron	-9.11487
▁ölüb	-9.11525
▁edin	-9.1155
▁27	-9.11612
əddin	-9.11722
oğlu	-9.11788
▁inkişafına	-9.11928
▁müdiri	-9.11989
▁25	-9.12087
▁qızıl	-9.12165
▁olardı	-9.12187
H	-9.12302
▁ünvanı	-9.12684
▁millisi	-9.12752
▁Gömrük	-9.12794
xan	-9.12917
▁olma	-9.13058
▁ehtiyac	-9.13059
20	-9.1308
▁bilməz	-9.13081
▁bilir	-9.13131
▁mərhələsi	-9.13481
▁musiqi	-9.13537
ist	-9.13572
▁çıxıb	-9.13584
.12	-9.13647
▁Rusiyada	-9.13745
▁irəli	-9.13926
▁çıxan	-9.13933
▁28	-9.13944
▁mümkün	-9.13984
▁xəsarət	-9.13995
▁Abşeron	-9.13996
▁İmam	-9.13999
▁Məmmədyarov	-9.14022
▁biləcək	-9.14033
▁ad	-9.14097
əladə	-9.14101
▁asan	-9.14104
▁KİV	-9.14116
▁dəf	-9.14152
▁yaradır	-9.14162
▁keçdi	-9.1421
ah	-9.14274
▁rayonlarında	-9.14543
▁istehsalı	-9.14626
▁azadlıq	-9.14808
▁may	-9.14852
▁qalan	-9.14856
▁danışıqlar	-9.14873
ol	-9.14891
▁təkrar	-9.1493
▁yerində	-9.14939
▁səfəri	-9.15069
▁sahədə	-9.15114
▁yad	-9.1513
▁müharibə	-9.15182
iz	-9.15267
▁telefon	-9.15316
▁işdən	-9.1535
şa	-9.15406
masına	-9.15483
gi	-9.15814
▁rus	-9.15888
qca	-9.16148
▁icazə	-9.16169
▁cı	-9.16299
▁saxlanılıb	-9.16626
▁öncə	-9.16627
▁düşüb	-9.16627
▁maddi	-9.16645
▁etdirir	-9.16646
▁ATƏT	-9.16702
▁zəngin	-9.16779
▁qızın	-9.1678
rkən	-9.16781
▁dəstək	-9.16851
▁Uşaq	-9.16894
▁SİYAHI	-9.16896
van	-9.17129
▁alan	-9.17138
▁qəbulu	-9.17172
▁Günü	-9.17192
▁Bəzə	-9.17212
▁Fotolar	-9.17506
ak	-9.17637
▁gənclər	-9.17676
▁dər	-9.17696
▁kitabı	-9.17702
▁Qa	-9.17794
▁Nur	-9.17871
ası	-9.18069
▁atası	-9.18098
G	-9.18395
▁Elma	-9.18488
▁hazırlıq	-9.18497
▁yoldaşı	-9.1871
▁Britaniya	-9.18756
▁mart	-9.18812
▁idarəsi	-9.18863
▁bunlar	-9.18885
▁Birliyi	-9.1889
▁olsun	-9.18899
▁şəhid	-9.18904
▁imzalayıb	-9.18906
▁sizin	-9.18928
▁elm	-9.18981
▁istefa	-9.19154
▁nail	-9.19274
▁sığorta	-9.19324
▁nümayəndələri	-9.19328
▁xahiş	-9.19329
▁Vladim	-9.19329
▁Fondun	-9.1933
▁qoyub	-9.19333
▁xəstəxana	-9.19335
▁açıqlayıb	-9.19341
unu	-9.19347
▁olacağı	-9.19368
▁dərc	-9.19372
▁Quliyev	-9.19413
Artıq	-9.19414
▁Mart	-9.19438
▁vasitəsilə	-9.19462
▁şair	-9.19521
▁ətrafında	-9.19522
▁sakinləri	-9.19588
▁ağa	-9.19624
▁toy	-9.1963
▁şərait	-9.19665
dür	-9.19695
▁ibarətdir	-9.1977
▁Hamı	-9.19834
▁Ukrayna	-9.19888
▁maraq	-9.19897
▁bayram	-9.19916
lıqla	-9.20145
▁edirik	-9.2016
▁qaydaları	-9.20281
le	-9.20362
▁etmir	-9.204
▁məktəbin	-9.20492
▁İranın	-9.20523
▁Gənclər	-9.2081
▁vəkili	-9.21012
▁Bunu	-9.21223
▁ko	-9.21235
▁vacib	-9.21428
▁evin	-9.21512
▁anası	-9.21613
▁qalır	-9.21686
▁olmuşdu	-9.21863
▁olmuş	-9.21986
▁beş	-9.2208
▁təltif	-9.22107
▁respublika	-9.22114
▁Maliyyə	-9.22118
▁AMEA	-9.22186
▁İqtisadi	-9.22236
▁silah	-9.22286
▁Başqa	-9.22358
▁hamısı	-9.22435
▁1-	-9.22554
▁yaradılması	-9.22582
▁qardaş	-9.22607
▁Qaz	-9.22687
mişdir	-9.22754
▁cənub	-9.22823
▁Şərq	-9.23126
▁dost	-9.232
▁g	-9.23262
▁Ağ	-9.23316
▁biridir	-9.23366
▁etmə	-9.23439
▁yemək	-9.23607
larımız	-9.23682
ub	-9.23685
başa	-9.23694
▁Sizin	-9.23743
▁2015	-9.23837
ev	-9.23917
us	-9.24125
▁məlumatı	-9.24256
▁Elm	-9.24354
▁edilə	-9.24379
▁məqsədi	-9.24441
▁adları	-9.24444
02	-9.245
▁sənəd	-9.24664
▁vasitələri	-9.24671
▁nəşr	-9.2468
▁işıq	-9.2483
▁şimal	-9.24947
▁müstəqil	-9.24954
▁Məhəmməd	-9.24959
▁Çempion	-9.2496
▁meşə	-9.24964
▁qarabağ	-9.24964
▁aparılıb	-9.24967
▁atəş	-9.24967
▁hədəf	-9.25006
▁pis	-9.25016
▁gözlənilir	-9.25027
▁təyyarə	-9.25044
▁Orta	-9.25065
▁aşağıdakı	-9.25085
▁NATO	-9.25099
▁asılı	-9.25121
▁sürücü	-9.25209
▁Oyunlarında	-9.25214
▁imtahan	-9.25287
▁jurnalist	-9.2535
▁Ölkə	-9.25386
▁çoxlu	-9.25529
▁Əhməd	-9.25715
▁səsi	-9.25796
▁hüquqları	-9.25877
▁qoydu	-9.25916
▁komanda	-9.25923
▁İşlər	-9.26031
▁əsəri	-9.26113
▁xətti	-9.26136
ından	-9.26152
ro	-9.26178
▁saytı	-9.26248
ətta	-9.26305
sinin	-9.26333
▁Lənkəran	-9.2638
▁Məhkəmə	-9.26389
▁yerlərdə	-9.26575
▁qərarı	-9.266
▁vardı	-9.26679
▁00	-9.26941
▁xalqın	-9.27165
▁özəl	-9.27204
▁yekun	-9.27426
▁iclas	-9.27448
▁verəcək	-9.27575
▁ərazisi	-9.27631
▁2-	-9.27677
▁Yol	-9.27707
▁klubu	-9.27747
▁Azər	-9.27753
▁Küveyt	-9.27905
▁zəlzələ	-9.27905
▁Həmrəyli	-9.27905
▁Şimal	-9.27906
▁veriləcək	-9.27906
▁ancaq	-9.27909
▁açıqlandı	-9.27913
▁ediləcək	-9.27915
▁Aşıq	-9.27924
▁yara	-9.27947
▁bi	-9.27954
▁16.11	-9.27974
▁yağış	-9.28006
▁azərbaycanlılar	-9.28043
▁XİN	-9.28054
▁səhnə	-9.28123
▁vətən	-9.28188
▁döyüş	-9.28219
liyyə	-9.28564
▁martın	-9.28616
▁bölmələri	-9.2868
▁dövründə	-9.28808
▁bəyanat	-9.28877
▁yaşı	-9.28901
yla	-9.28923
▁vəsait	-9.28962
ladı	-9.29025
▁göz	-9.29111
zi	-9.29351
▁haqqı	-9.29474
▁müzakirələr	-9.29487
▁nəticə	-9.29514
▁vəziyyətdə	-9.29631
▁kəndində	-9.29954
▁günündə	-9.29959
▁rolu	-9.29986
▁ittiham	-9.3016
▁bura	-9.30212
▁kifayət	-9.30218
▁sözü	-9.3026
▁məhsulları	-9.30301
os	-9.3032
▁açılış	-9.30389
▁ordusu	-9.30432
▁keçirildi	-9.30443
▁Yer	-9.30542
▁mirzə	-9.30643
▁yaşayır	-9.3066
▁iddia	-9.30689
▁narahat	-9.30699
▁əsgər	-9.30763
▁oyunu	-9.30858
▁soyqırımı	-9.30875
▁əziyyət	-9.30937
▁partlayış	-9.30938
▁Ağdam	-9.30939
▁pozub	-9.3094
▁vurub	-9.30941
▁ixtisas	-9.30967
▁Trend	-9.30967
▁əməkdaşları	-9.31015
▁etdilər	-9.31017
▁yazılan	-9.31017
▁Futbol	-9.31022
▁getmək	-9.31045
▁Bununla	-9.3106
▁istiqamətində	-9.31103
anadan	-9.31344
▁Federasiyası	-9.31405
dılar	-9.3146
▁hədiyyə	-9.31494
▁məqsəd	-9.31512
▁təsiri	-9.31708
ova	-9.3172
▁hallar	-9.31754
▁başını	-9.31757
▁şeyi	-9.31898
“	-9.32249
▁lider	-9.32402
▁yubileyi	-9.3254
▁ye	-9.32591
ek	-9.32614
▁çoxu	-9.32722
▁başı	-9.3273
if	-9.32732
▁Həsən	-9.3276
akir	-9.32943
to	-9.32951
▁bəs	-9.33073
▁İl	-9.33101
▁məcbur	-9.33215
▁dəyər	-9.33235
▁nədir	-9.33377
▁fəaliyyətini	-9.33382
▁mükafatı	-9.33383
▁təmir	-9.33398
çilər	-9.33548
▁iyun	-9.33612
▁gəlin	-9.33707
▁həlli	-9.33762
▁orada	-9.33794
▁qabaq	-9.33829
axili	-9.33865
▁imza	-9.33904
▁malik	-9.33919
▁yoxdu	-9.3392
məyə	-9.33924
.09	-9.33925
▁adlan	-9.33971
▁dəyişiklik	-9.33973
▁məsləhət	-9.34029
▁məğlub	-9.34029
▁uğr	-9.34058
▁Deputat	-9.3406
▁intihar	-9.34061
▁sərbəst	-9.34066
▁aşıq	-9.34068
▁Hadisə	-9.3407
▁doktoru	-9.34071
▁araşdırmalar	-9.34077
▁futbolçusu	-9.34088
lo	-9.34089
▁keçirdiyi	-9.34116
▁dəyişikliklər	-9.34148
▁Rus	-9.34181
▁söhbət	-9.34208
▁türk	-9.34264
▁video	-9.34276
▁yazır	-9.34425
▁Partiyası	-9.34492
▁Administrasiya	-9.34517
▁Qadın	-9.34562
▁qır	-9.34564
▁Bəzi	-9.34594
▁üzərin	-9.34632
▁sentyabrın	-9.34688
▁xidmətləri	-9.34761
▁vətəndaşı	-9.34999
▁həcmi	-9.35043
▁ərazidə	-9.35064
▁model	-9.35083
▁gəlirdi	-9.35108
▁31	-9.35216
▁sənə	-9.35257
rək	-9.35313
▁qazan	-9.35456
AZ	-9.35616
▁qardaşı	-9.35706
▁Su	-9.35795
▁Ara	-9.35882
▁mərhələsində	-9.35895
ımız	-9.3593
j	-9.36099
▁səfiri	-9.36193
▁nəqliyyat	-9.36228
▁yay	-9.36232
▁bizi	-9.36605
ləşdirilməsi	-9.36627
▁xarakter	-9.36762
ür	-9.36817
▁çıxar	-9.37187
▁yerləşir	-9.3719
▁sol	-9.37208
▁mövcud	-9.3725
əşhur	-9.37256
▁Oqtay	-9.37286
▁Oğlan	-9.37286
▁bəhs	-9.37287
▁imzalanıb	-9.37296
▁Minsk	-9.37296
▁yanvar	-9.37298
▁Abdullayev	-9.37324
▁olmur	-9.37336
▁Kim	-9.3742
▁Təbi	-9.37425
▁evi	-9.37448
▁artırılması	-9.37461
▁yazıb	-9.37494
▁Mərkəzində	-9.3754
▁əhəmiyyət	-9.37556
▁metr	-9.37572
▁hesabat	-9.37891
▁müalicə	-9.3793
nız	-9.37961
▁deyildi	-9.37976
▁təhlükəsizliyi	-9.3798
yev	-9.38031
▁usta	-9.38097
rəm	-9.38235
▁ölkələrin	-9.38258
▁Ka	-9.38341
şə	-9.38379
lənir	-9.3864
▁ölü	-9.38742
▁Tarixi	-9.38884
▁aprel	-9.39014
▁mədəni	-9.39057
▁jurnalı	-9.39058
▁fərq	-9.39198
▁Ağa	-9.39229
▁adamlar	-9.39256
▁etməyi	-9.39259
▁vəzifəsində	-9.3932
▁Sənin	-9.39585
laşdırılması	-9.39589
▁noyabr	-9.39603
layıb	-9.39623
▁sıx	-9.39662
min	-9.39704
▁oktyabr	-9.39711
▁gündən	-9.39711
▁qarşısını	-9.39725
▁zəng	-9.39748
▁sentyabr	-9.40049
▁Məhkəməsi	-9.40104
▁uzaq	-9.40156
▁sənət	-9.40401
▁müsabiqəsi	-9.40487
ehriban	-9.40585
▁barəsində	-9.4062
▁qonşu	-9.40621
▁bildirilir	-9.40623
▁tutulub	-9.40623
▁yavaş	-9.40625
▁mln	-9.40625
▁aparılır	-9.40625
▁Səudiyyə	-9.40626
▁uğurlu	-9.40633
▁sülh	-9.4064
▁ötən	-9.40641
▁nömrəli	-9.40642
▁sərgi	-9.40696
▁Millət	-9.40794
▁yaralı	-9.40818
▁Asiya	-9.4084
▁Yerli	-9.40902
▁mənəvi	-9.4092
▁olurdu	-9.40964
əhiyyə	-9.41014
▁verə	-9.41085
▁cür	-9.41164
▁kəsi	-9.41201
▁(1	-9.41256
kli	-9.41308
▁Na	-9.41328
▁dünyasını	-9.41416
▁əhalinin	-9.41454
▁sahəsi	-9.41501
▁x	-9.41568
▁əlindən	-9.41596
op	-9.41661
▁qa	-9.41721
▁agentliyi	-9.41725
▁dünyaya	-9.41734
▁qala	-9.41782
▁razı	-9.41811
▁tarix	-9.41882
aş	-9.41894
▁müsahibə	-9.41894
▁problemi	-9.41903
▁Xidməti	-9.41925
▁hüquqi	-9.41954
▁ingilis	-9.42079
▁məsələləri	-9.42097
▁nümayəndəsi	-9.42178
▁saytın	-9.42383
▁məktəbdə	-9.42482
▁təqdimatı	-9.42502
▁olmağ	-9.42656
sindən	-9.42661
lanan	-9.42673
▁tutdu	-9.42732
▁birini	-9.42897
▁fevral	-9.4294
▁yola	-9.42977
▁məruz	-9.43002
▁dəyişdi	-9.43091
▁çalışır	-9.43197
▁Buna	-9.43362
▁hadisəsi	-9.43389
▁dəqiq	-9.43398
suz	-9.43471
4.04	-9.43519
yət	-9.43573
▁şəxslərin	-9.43652
ləndirilməsi	-9.43699
▁layiq	-9.43804
▁axtarış	-9.43831
▁uğurla	-9.43882
▁daim	-9.43915
xana	-9.43957
▁Nizam	-9.44047
▁zəif	-9.44066
▁Koreya	-9.44068
▁UEFA	-9.44068
▁məhrum	-9.44068
ASAN	-9.44068
▁vahid	-9.44072
▁Peyğəmbər	-9.4408
▁təxminən	-9.44098
▁salıb	-9.44104
▁hətta	-9.44114
▁içərisində	-9.44137
▁ərəb	-9.44157
▁Əmir	-9.44164
▁Paşinyan	-9.44167
▁ikisi	-9.44238
▁əhali	-9.4425
▁sovet	-9.44297
▁Kitab	-9.44353
▁bərk	-9.44398
rdı	-9.44672
▁50	-9.44841
tiv	-9.44985
▁etməsi	-9.45079
qan	-9.4509
▁qeydiyyat	-9.45133
▁fevralın	-9.45209
▁bank	-9.45229
▁üçüncü	-9.45305
▁xalqının	-9.45305
▁sa	-9.45446
▁Gənc	-9.45456
▁tələbə	-9.45493
▁cəhd	-9.45516
▁günlər	-9.45532
▁konfransı	-9.45552
▁axşam	-9.45558
▁Qərb	-9.45886
▁İdarə	-9.45936
▁vətəndaşları	-9.46134
▁final	-9.46191
▁!	-9.462
▁yaş	-9.4626
▁axır	-9.46394
ö	-9.46447
tik	-9.46533
ylə	-9.46609
▁Liqasını	-9.46614
▁üzv	-9.46622
▁ermənilər	-9.46628
▁millət	-9.46849
▁Xəbər	-9.46865
ləşmə	-9.46958
ğını	-9.47004
▁proqram	-9.47187
ək	-9.47193
▁vermiş	-9.47249
▁mərhələsin	-9.47351
▁futbol	-9.47414
▁Kar	-9.47465
▁şöbəsi	-9.47485
▁satışı	-9.4761
remyer	-9.47638
▁vurğulayıb	-9.47641
sabiq	-9.47642
▁müəyyənləşib	-9.47643
▁dörd	-9.47643
▁kütlə	-9.47647
▁danışıb	-9.47652
▁qanunsuz	-9.47658
▁Bil	-9.47662
▁Forumu	-9.47662
▁İqtisadiyyat	-9.47677
▁qorunur	-9.47722
▁qüvvələri	-9.47761
▁Bankı	-9.47802
▁sayda	-9.47876
▁aparılan	-9.47902
▁qolu	-9.47916
▁Bo	-9.4794
▁200	-9.47943
▁istədi	-9.47945
▁gəmi	-9.47968
▁məqsədilə	-9.47982
▁iqtisadiyyatın	-9.48056
▁ələ	-9.48144
▁el	-9.48272
▁istintaq	-9.48342
uş	-9.48463
▁Komissiyasın	-9.48465
▁Qar	-9.48496
▁qəzet	-9.48529
▁qətl	-9.48553
▁3-	-9.48574
▁kimsə	-9.48634
▁Ber	-9.48756
▁məşqçi	-9.48764
▁Qızıl	-9.48783
▁tə	-9.48826
▁imkanı	-9.49006
▁ibn	-9.49011
▁rəng	-9.49016
▁yaz	-9.49065
▁tərəfdən	-9.49204
▁ayın	-9.49204
▁gətir	-9.49382
▁dəstə	-9.49426
▁mayın	-9.49431
▁deyildir	-9.49634
ut	-9.49642
▁ordu	-9.49684
▁dur	-9.49726
▁proses	-9.49841
▁as	-9.49851
▁şikayət	-9.49928
▁addım	-9.49984
▁adlanır	-9.50059
▁Ma	-9.5006
▁film	-9.50137
▁Ko	-9.50156
▁turun	-9.5019
▁Ər	-9.50193
▁qəzası	-9.50235
▁yağ	-9.50433
raq	-9.5052
▁Qəbələ	-9.50551
▁məqalələr	-9.50681
▁sal	-9.50701
▁neftin	-9.50779
▁Silahl	-9.50809
▁çempionatı	-9.50822
▁əsərləri	-9.50906
▁işlərin	-9.50978
info	-9.51059
▁keçirilmiş	-9.51093
▁sifariş	-9.51118
▁etməlidir	-9.51145
▁şahmat	-9.51204
▁İnstitutu	-9.51266
▁danışır	-9.51281
▁kəskin	-9.513
▁rusiya	-9.51301
Palitra	-9.51343
▁Qazaxıstan	-9.51343
▁açılıb	-9.51343
▁aparıcı	-9.51343
▁narkotik	-9.51344
▁bəlli	-9.51344
▁Əfqanıstan	-9.51346
▁yeddi	-9.51346
▁Quba	-9.51347
▁olmayacaq	-9.51348
▁əhəmiyyətli	-9.51364
▁çempionu	-9.51375
▁ayağa	-9.51376
▁Heyəti	-9.51381
▁İngiltərə	-9.51382
ram	-9.51386
▁qonaq	-9.51423
▁qazandı	-9.5143
▁tutan	-9.51488
▁iri	-9.51504
▁qurban	-9.51646
▁texniki	-9.5166
es	-9.51662
▁sözləri	-9.51696
▁məktəblər	-9.51724
▁hesabına	-9.51727
Azərbaycanda	-9.51799
▁səni	-9.51808
▁təsvir	-9.51856
ağa	-9.51869
▁indiyə	-9.52053
▁şirkət	-9.52059
▁lideri	-9.52089
▁xəstə	-9.52282
▁yana	-9.52373
▁İtaliya	-9.52574
▁Xəbərlər	-9.52603
izm	-9.52617
▁ilkin	-9.5262
▁20-	-9.52687
fa	-9.52699
Mən	-9.5271
▁saç	-9.52774
▁hökumət	-9.52831
▁Olimpi	-9.52898
▁insanın	-9.52907
▁rejimini	-9.52928
▁maddə	-9.52954
▁yanacaq	-9.52997
▁valyuta	-9.53021
▁komandası	-9.53179
▁Şəki	-9.53249
▁keçirir	-9.53335
Ç	-9.53354
Sumqayıt	-9.53373
▁ondan	-9.53406
▁ala	-9.53416
lanma	-9.53474
▁Liqası	-9.53517
▁ton	-9.53548
▁burda	-9.53556
ter	-9.53751
sta	-9.53771
▁səviyyəsi	-9.5378
▁istənil	-9.53877
▁çayı	-9.53917
▁istəyən	-9.54015
▁faktlar	-9.54111
me	-9.54115
▁başlaya	-9.54282
▁müəllimi	-9.54316
▁tədbirləri	-9.54392
▁haqq	-9.54645
ed	-9.54695
cəm	-9.54859
▁Gül	-9.5486
irdi	-9.54973
▁sə	-9.54984
▁boş	-9.55052
▁Abbas	-9.55136
▁verməyə	-9.55156
▁Musiqi	-9.55189
▁Təhlükəsizlik	-9.55189
▁Rəcəb	-9.55189
▁Vikipediya	-9.5519
▁daşımır	-9.5519
▁saxlayıb	-9.55193
▁Lerik	-9.55195
▁olanlar	-9.552
▁xəbərdarlıq	-9.55207
▁yaralanıb	-9.55215
▁Ağır	-9.55239
▁yaşamaq	-9.5527
▁şəklində	-9.55277
▁sahələri	-9.55277
▁bədii	-9.5528
▁açıqlamasında	-9.55287
▁Muxtar	-9.55301
▁qələm	-9.55306
▁olmasa	-9.55307
▁yaranmışdır	-9.55321
▁hakimiyyəti	-9.55338
▁Hələ	-9.55343
▁təşkilat	-9.55345
▁dəhşətli	-9.55366
▁Azad	-9.55386
▁iti	-9.55405
▁Qız	-9.55445
▁əsl	-9.55471
▁əlaqələri	-9.55475
▁etmişlər	-9.55482
▁40	-9.55494
▁Ailə	-9.55539
▁sakini	-9.55571
▁məktub	-9.55588
▁Təşkilatı	-9.55589
▁araşdırma	-9.55592
▁Azadlıq	-9.55654
▁vurdu	-9.55689
▁səviyyəsində	-9.55743
▁iqtisadiyyat	-9.5582
alnız	-9.55984
▁şirkətin	-9.56006
▁2016	-9.56063
▁çətinlik	-9.56074
▁hissə	-9.56125
▁gətirir	-9.56145
dü	-9.562
▁yaşında	-9.56271
▁Gülə	-9.56435
▁hissəsində	-9.56471
ül	-9.56536
▁dövlətin	-9.56629
▁dərman	-9.56639
▁biznes	-9.56743
▁arxa	-9.56774
▁çalış	-9.56851
▁məsələsi	-9.56853
▁faciəsi	-9.56954
kar	-9.57128
▁özü	-9.5718
▁təşkilatı	-9.57207
▁müəllimlərin	-9.57282
▁kor	-9.57624
▁tamaşa	-9.57754
▁artisti	-9.5778
dığını	-9.57787
▁dağlar	-9.57808
▁alim	-9.57873
▁kənarda	-9.57939
bel	-9.57949
▁dekabr	-9.57993
ğın	-9.5809
▁sahə	-9.58133
▁edənlər	-9.58139
lığa	-9.58177
▁əsrdə	-9.58196
▁göndər	-9.58308
▁faciə	-9.58337
▁ədəbiyyatı	-9.58373
yar	-9.58444
▁Moskva	-9.58463
▁ağac	-9.58487
əsi	-9.58535
▁dərd	-9.58752
▁polisi	-9.58879
qar	-9.5899
▁dolu	-9.59011
▁Sə	-9.59118
müsbət	-9.59189
▁Oykonim	-9.59189
▁istirahət	-9.59189
▁nisbətən	-9.59189
▁Şamaxı	-9.59189
▁sabah	-9.59189
▁ədəbi	-9.59189
▁müqayisə	-9.5919
▁etdirmək	-9.5919
▁seçilib	-9.59192
▁24/0	-9.59194
▁oğurluq	-9.59195
▁əməkdaşı	-9.59206
▁qəsəbəsində	-9.59231
▁cəmi	-9.59246
▁ek	-9.59269
▁dəyişir	-9.59349
▁təyinat	-9.59372
▁əziz	-9.59374
▁canlı	-9.59391
▁Gecə	-9.59409
he	-9.59426
▁sonunda	-9.59432
▁Yaxın	-9.59457
▁hökuməti	-9.59493
▁an	-9.59515
▁islam	-9.59545
▁olunurdu	-9.59568
▁mənf	-9.59585
▁Belarus	-9.59608
▁Gürcüstanda	-9.59609
▁80	-9.59629
tə	-9.59794
ge	-9.59815
▁Hakimiyyətinin	-9.59826
▁təhlillər	-9.59913
rədd	-9.59919
▁Nazirlər	-9.59955
▁hakim	-9.5999
▁maşın	-9.59993
▁işçi	-9.60076
▁is	-9.60122
▁vətəndaş	-9.60171
▁Moskvada	-9.60189
▁əlini	-9.6019
▁səbəbi	-9.60221
▁28-	-9.60234
▁azadlığı	-9.60285
▁90	-9.60316
▁nazirinin	-9.60321
▁oktyabrın	-9.60338
▁İttifaqı	-9.60405
▁dekabrın	-9.60443
▁bazası	-9.60448
▁sizi	-9.60496
▁yaradıcılığı	-9.6052
▁turizm	-9.60525
qdan	-9.60539
▁Əsədov	-9.6058
▁Yolları	-9.60597
▁mərkəzində	-9.60622
▁noyabrın	-9.60651
▁Kaliforniya	-9.60688
▁rol	-9.60714
▁hesabatı	-9.60723
ot	-9.60766
od	-9.60822
▁siyahısı	-9.60885
▁keyfiyyət	-9.60911
▁istəyirdi	-9.60967
lərarası	-9.61109
▁məktəbi	-9.61152
▁olmasın	-9.61167
▁müddəti	-9.61169
0-	-9.61194
▁gündə	-9.61265
tu	-9.61309
sk	-9.61383
▁gör	-9.61436
▁partiya	-9.61494
FOTO	-9.61539
▁inşa	-9.61789
▁sərnişin	-9.61802
▁oyunları	-9.61808
çilik	-9.61817
▁Kişi	-9.61828
uf	-9.61863
▁Hacıyev	-9.61952
▁dərəcəsi	-9.61974
uz	-9.62014
▁Erməni	-9.62039
▁şəhərin	-9.62069
▁birində	-9.62093
ünü	-9.62113
▁adi	-9.62138
▁Ye	-9.62141
▁rahat	-9.62226
▁etmiş	-9.62264
acağı	-9.62365
▁tərəfi	-9.62418
▁düşdü	-9.62532
▁qadağan	-9.62538
▁dövr	-9.6259
2018	-9.62626
▁Novruz	-9.62628
▁məqam	-9.62655
▁Misir	-9.62679
▁ili	-9.62707
▁İraq	-9.62741
▁hesabı	-9.62786
▁insanların	-9.6279
▁qalma	-9.62911
▁direktor	-9.62932
▁Ümum	-9.62984
II	-9.62985
▁forma	-9.62996
▁idxal	-9.63015
▁hüququ	-9.63028
▁ehtiyacı	-9.63063
▁saldı	-9.63068
▁ər	-9.63124
▁Oyunları	-9.63176
▁əvəz	-9.63195
ru	-9.63257
▁Uca	-9.633
▁10-	-9.63326
▁Akademi	-9.63337
▁Layihə	-9.63356
▁rekord	-9.63356
▁çıxarılıb	-9.63356
▁Şeyx	-9.63356
▁Bolqarıstan	-9.63358
▁düzgün	-9.63358
▁baxmayaraq	-9.63359
▁köməkçisi	-9.63362
▁şaxta	-9.63367
▁əzab	-9.63368
▁mümkündür	-9.63373
▁tabe	-9.63374
▁dəyişib	-9.63376
▁Dəmir	-9.63377
▁davranış	-9.63379
▁uşağı	-9.63379
▁açıb	-9.63379
▁keçirəcək	-9.63385
▁Yaxşı	-9.634
əng	-9.63458
▁sərt	-9.6346
▁alın	-9.63471
▁alınmışdır	-9.63472
▁Binəqədi	-9.63477
▁Sovet	-9.63477
▁Nəsimi	-9.63477
▁sonuna	-9.63499
▁şəxsin	-9.63553
▁Nəqliyyat	-9.63555
yu	-9.63567
▁günə	-9.63577
malı	-9.636
▁ixrac	-9.63614
▁işini	-9.63626
▁Dollar	-9.63632
▁keçirilmişdir	-9.63647
▁razılıq	-9.63656
▁tarixli	-9.63674
▁qəribə	-9.63716
▁bəyan	-9.63817
▁məntəqəsi	-9.63916
▁məkan	-9.64018
▁TV	-9.6402
▁göstərilə	-9.64095
▁geyim	-9.6411
▁Cəmiyyəti	-9.6421
▁hacı	-9.64506
▁Hüseynov	-9.64506
▁adından	-9.64528
▁olmaqla	-9.64531
diyiniz	-9.64531
rik	-9.64547
▁paytaxtı	-9.64592
▁bərpa	-9.64615
▁qulaq	-9.64645
▁arvadı	-9.64741
▁nəfərin	-9.64743
▁Eyn	-9.6477
▁kəndin	-9.64841
▁sektoru	-9.64856
▁xeber	-9.64876
▁aksiyası	-9.6489
imizi	-9.64923
▁Dağ	-9.6504
▁həqiqət	-9.65057
▁baxdı	-9.65221
hal	-9.65423
▁qrupu	-9.65548
▁general	-9.65664
▁Ar	-9.65682
▁yığma	-9.6581
▁çal	-9.65832
Real	-9.65837
▁Tarix	-9.65863
VİDEO	-9.65893
▁qə	-9.65928
▁suyu	-9.66034
▁AZ	-9.66045
se	-9.66086
Biz	-9.66151
▁İranda	-9.66284
▁həyatını	-9.66344
▁Qurbanov	-9.66477
▁Əziz	-9.66556
▁ölkəmizdə	-9.6664
▁tətbiqi	-9.66765
▁sistem	-9.66859
▁atdı	-9.6687
▁gətirdi	-9.66871
▁evdə	-9.66876
▁səfirliyi	-9.66943
▁ehtiyat	-9.66964
▁Qadınlar	-9.67022
▁klub	-9.67027
▁Ermənilər	-9.6705
▁xoşbəxt	-9.67179
▁xalqı	-9.67248
▁imtahanı	-9.67289
▁Digərləri	-9.67303
lərimiz	-9.6737
▁mü	-9.67527
▁Yaşay	-9.67568
▁təhlükəli	-9.67616
▁İrana	-9.67636
▁4-	-9.67638
məsini	-9.67676
▁Mirzə	-9.67701
▁Mövzu	-9.67704
▁Nərgiz	-9.67704
▁Ticarət	-9.67704
▁təntənə	-9.67704
▁cəbhə	-9.67704
▁səyahət	-9.67704
▁tərtib	-9.67704
▁Molla	-9.67704
▁açıldı	-9.67706
▁olsaydı	-9.6771
▁Vaxt	-9.67713
▁doğma	-9.67715
▁olmayıb	-9.67717
▁çağırıb	-9.67719
▁təsərrüfatı	-9.67722
▁hazırlanması	-9.67732
▁olunmalıdır	-9.67739
▁Cavid	-9.6775
▁mövcuddur	-9.67752
▁soyuq	-9.67771
▁AZER	-9.67832
50	-9.67959
lidir	-9.67976
▁münasibətlər	-9.68066
▁bildirdi	-9.68115
Niyə	-9.68187
▁qərb	-9.68226
▁ölən	-9.68291
qları	-9.68301
Nobel	-9.68302
▁quru	-9.68418
▁km	-9.68559
▁dəri	-9.68586
▁fikri	-9.68593
▁İstifadəçi	-9.68656
▁yolunu	-9.68831
▁Xi	-9.68924
▁ildir	-9.68965
▁Hüquq	-9.69017
tərəfli	-9.69027
▁qorxu	-9.6915
▁et	-9.69225
▁qış	-9.69269
▁Pakistan	-9.69274
▁surət	-9.69335
ch	-9.6937
▁keçid	-9.69497
tan	-9.69499
▁bilən	-9.69529
yer	-9.69558
əsində	-9.6965
yam	-9.69756
mayıb	-9.698
▁saatlarında	-9.70178
ahi	-9.70192
▁vermir	-9.70246
▁dəyişən	-9.70268
▁yolunda	-9.7033
▁forması	-9.70391
▁mal	-9.70413
neft	-9.70432
▁oluna	-9.70495
▁vaxtında	-9.70508
ye	-9.70534
▁Yoxs	-9.70564
▁şöbə	-9.70607
▁idilər	-9.70671
▁hüquqlar	-9.70678
Z	-9.70769
məlidir	-9.70791
▁qüvvə	-9.70811
▁vermədi	-9.7083
▁şərq	-9.70871
iç	-9.70914
▁həyatda	-9.7101
ça	-9.71091
▁bilik	-9.71128
▁seçkiləri	-9.71159
▁fizik	-9.71164
▁səfərə	-9.71188
▁atam	-9.71223
ji	-9.7123
lay	-9.71286
ika	-9.71389
▁ayaq	-9.71414
▁səfərdə	-9.71449
▁ət	-9.71465
▁vəzifəsin	-9.71527
▁vilayət	-9.71552
▁re	-9.7156
11	-9.71637
▁yeniliklər	-9.71884
diyini	-9.71933
▁gözlənil	-9.7199
▁top	-9.72033
▁sevgi	-9.72058
▁Uşaqlar	-9.72075
▁tap	-9.72128
▁aldığı	-9.72151
kdən	-9.72163
▁İstə	-9.72182
▁alış	-9.72216
▁çəki	-9.72233
▁qulluq	-9.72241
▁gömrük	-9.72244
▁Mübariz	-9.72249
▁soruşdu	-9.72249
▁strateji	-9.72249
▁yarımadasında	-9.72249
▁MDB	-9.72249
▁Publika	-9.72249
▁tiflis	-9.72249
▁Biznes	-9.72249
▁Region	-9.72249
Kiçik	-9.72251
▁qonağı	-9.72251
▁Vergi	-9.72256
▁təşəkkür	-9.72257
Səbail	-9.72257
▁buraxılış	-9.72268
▁həsən	-9.72271
▁tanınmış	-9.72275
▁vaxtlar	-9.72277
▁balaca	-9.72284
▁qazanıb	-9.72289
▁Sputnik	-9.72298
▁yazmaq	-9.72318
▁baxımdan	-9.72321
▁mövqeyi	-9.72334
▁bilmirəm	-9.72335
▁yəni	-9.72336
▁Mir	-9.72369
▁ailəsi	-9.72372
▁gəlmişdi	-9.7238
▁nadir	-9.72439
▁tutulur	-9.72496
▁malikdir	-9.72618
▁göstərən	-9.72664
▁əmin	-9.72668
və	-9.72688
▁vermişdir	-9.72725
▁tələbələr	-9.7275
▁qoyun	-9.72852
▁if	-9.72918
ski	-9.72925
▁Ərəbistanı	-9.73103
org	-9.73333
▁məzənnəsi	-9.73403
▁fəlsəfə	-9.7349
▁çat	-9.7352
liklə	-9.73673
▁həyatı	-9.7368
▁fikirlər	-9.73731
gah	-9.73745
▁dava	-9.73772
▁münasibətləri	-9.73792
▁Məktəb	-9.73817
▁İnsanlar	-9.73848
▁cinsi	-9.73865
▁vergi	-9.73887
▁Səməd	-9.73909
ırdı	-9.74
▁deyirlər	-9.7401
liyinin	-9.74076
▁rejimi	-9.74136
iy	-9.74172
şı	-9.74232
▁Bi	-9.74233
▁jurnalistlər	-9.7431
▁sənədlər	-9.74411
▁təcrübə	-9.7445
▁heyvan	-9.74483
urizm	-9.74548
▁elədi	-9.74637
▁keçirdi	-9.74639
▁ölkələr	-9.74784
▁Lənkəranda	-9.74809
▁dolları	-9.74859
▁sər	-9.74866
▁məna	-9.74995
▁nəticələr	-9.74998
▁Forumunu	-9.75046
▁sinif	-9.75143
iyyət	-9.75148
▁imkanları	-9.75161
Ermənistan	-9.75201
▁investisiya	-9.75203
▁dünyanı	-9.75214
▁çıxmış	-9.75232
▁Tə	-9.75278
▁elmləri	-9.75302
AG	-9.75317
▁Tədbir	-9.75331
▁yarım	-9.7534
▁Əhmədov	-9.7535
▁texnologiyaları	-9.75403
▁abbas	-9.75415
▁regiona	-9.75612
ec	-9.75709
▁nələr	-9.75713
▁Nazirliyin	-9.75761
▁Ha	-9.75896
▁faizi	-9.75904
▁ümum	-9.76
▁allah	-9.76011
ğu	-9.76151
▁Ümumi	-9.76151
▁xal	-9.76177
başına	-9.76181
▁Əsgər	-9.76213
duğu	-9.76518
▁altın	-9.76551
▁Mənə	-9.76653
▁yaranması	-9.76714
▁avqust	-9.76721
▁tədqiqat	-9.76807
▁tövsiyə	-9.76851
▁işçilərin	-9.76876
luğu	-9.7689
▁hissi	-9.76915
▁60	-9.76974
▁olunmuşdu	-9.76987
▁Ekspert	-9.77011
▁İspaniya	-9.77011
Qalatasaray	-9.77011
▁Avqust	-9.77011
▁Qeyri	-9.77011
▁əleyhinə	-9.77011
▁MMC	-9.77011
▁Robert	-9.77011
▁öndər	-9.77011
▁Görüş	-9.77011
▁transfer	-9.77011
▁yağmursuz	-9.77013
▁Musa	-9.77014
▁Sənaye	-9.77015
▁işarə	-9.77019
▁rektoru	-9.77022
▁sutka	-9.77022
▁klubunu	-9.77028
Donald	-9.7703
▁Qlobal	-9.77032
▁istəmirəm	-9.77047
▁pulsuz	-9.77048
▁əsər	-9.7705
▁Axşam	-9.77062
▁edilməlidir	-9.77072
▁iran	-9.77082
▁Ulu	-9.77085
▁çalışan	-9.77117
▁Qədim	-9.77158
▁Qoca	-9.77174
▁Film	-9.77183
▁qabiliyyəti	-9.77225
▁arxasında	-9.77269
▁manatlıq	-9.77435
▁abidələri	-9.77472
sınız	-9.77527
▁olmaz	-9.77537
▁balıq	-9.77549
▁İnkişaf	-9.77562
▁2015-	-9.77563
▁Naxçıvanda	-9.77586
▁sultan	-9.77606
stan	-9.7774
▁sınaq	-9.77794
▁iyunun	-9.77796
▁yar	-9.77955
▁Hal	-9.77955
▁tərəflər	-9.78005
▁No	-9.78101
▁ədəbiyyat	-9.7813
▁yanvarın	-9.78132
▁yaratdı	-9.78354
▁nitq	-9.78537
▁əd	-9.78544
▁Yazı	-9.78571
▁sərhəd	-9.78616
▁cəmiyyət	-9.78648
▁yayıla	-9.78678
ılmış	-9.7868
▁edirdilər	-9.78705
▁yurdu	-9.78729
▁rayonun	-9.78772
▁məhsul	-9.78815
▁Əd	-9.78889
▁avtobus	-9.7897
▁qayğı	-9.79018
▁ictimaiyyət	-9.79108
ber	-9.79158
ayı	-9.79209
▁çatdır	-9.79271
▁Prokurorluq	-9.79289
▁İsmayıl	-9.79306
▁ma	-9.79563
▁rəqibi	-9.79577
▁binası	-9.79602
▁Rami	-9.7965
▁di	-9.79664
▁qoca	-9.79691
▁aktı	-9.79713
▁Məclis	-9.79718
▁endirim	-9.79792
▁2013-	-9.79815
▁xə	-9.7982
▁kişilər	-9.7993
▁Al	-9.80017
▁boyu	-9.80054
▁Me	-9.80054
▁Mal	-9.80062
▁oğlunu	-9.80087
▁İstanbul	-9.80126
xeber	-9.80168
Türkiyə	-9.80195
▁ərə	-9.80215
▁etdikləri	-9.80246
▁fərqi	-9.80351
▁seç	-9.8037
▁üstünlük	-9.80423
▁cəmiyyətin	-9.80606
▁həyatın	-9.80626
▁Hakimiyyəti	-9.80701
▁fikirləri	-9.80757
▁müsəlman	-9.8084
▁növbədə	-9.80999
▁mane	-9.81
ual	-9.81038
▁təşkili	-9.81038
▁quş	-9.81106
▁so	-9.81153
▁əhəmiyyəti	-9.8119
▁Oyunlarını	-9.81206
▁aç	-9.81207
oy	-9.81212
▁nəfəri	-9.81225
▁gəlmiş	-9.81265
▁tələbələri	-9.81291
▁Prokurorluğu	-9.81314
▁bilmədi	-9.81397
lamaq	-9.81469
▁Məmmədova	-9.8147
▁etdiyini	-9.81493
▁İngilis	-9.81554
▁An	-9.81574
▁cənab	-9.81589
▁45	-9.81594
▁çıxa	-9.81653
▁təzyiq	-9.81674
▁müsahibələr	-9.81681
▁vəzifələr	-9.81695
▁şairi	-9.81757
▁mövsüm	-9.81781
▁mükafat	-9.81798
▁məlumatları	-9.81823
▁sabit	-9.81852
▁mərhələ	-9.81895
▁vasitəsi	-9.81916
▁professor	-9.81918
▁insanı	-9.81918
▁ulu	-9.81943
▁Ey	-9.8196
▁oxuyur	-9.81964
▁Alman	-9.81965
▁Maraqlı	-9.81982
:27	-9.82004
▁Müstəqil	-9.82005
▁məhəmməd	-9.82009
▁BAKI	-9.82011
▁Səhifə	-9.82011
▁Yasamal	-9.82011
▁başlanılıb	-9.82011
▁müayinə	-9.82011
▁nifrət	-9.82011
▁İmtahan	-9.82011
▁ANS	-9.82011
▁AÇIQLAMA	-9.82011
▁ürək	-9.82012
▁yerləşdirilib	-9.82017
▁qırmızı	-9.82018
LƏR	-9.82026
▁doğum	-9.82031
▁nəyi	-9.82034
▁Hansı	-9.82036
▁Əslində	-9.8204
▁test	-9.82042
▁Beləliklə	-9.82043
ester	-9.82061
▁saxlamaq	-9.82085
▁əhməd	-9.82092
nan	-9.82094
▁peşə	-9.82131
▁Qış	-9.82179
.02.201	-9.82181
bari	-9.82212
▁başında	-9.8222
▁qoyur	-9.82228
▁it	-9.82248
▁özünə	-9.82257
▁inan	-9.82284
▁avqustun	-9.82316
▁aylıq	-9.82319
▁çap	-9.82351
nar	-9.82388
▁deyiləm	-9.82392
re	-9.82453
imə	-9.82483
▁əvvəlcə	-9.82487
▁nəzəriyyəsi	-9.82542
▁yaranan	-9.82566
▁Materiallar	-9.82624
▁ölüm	-9.82635
▁oxu	-9.82716
▁gətirən	-9.8275
▁soyqırımının	-9.82779
ağ	-9.82783
▁diri	-9.82804
▁saziş	-9.82812
▁formada	-9.8285
▁mərasimində	-9.82911
▁qurulması	-9.82942
▁xanımı	-9.82952
▁gözü	-9.83032
▁35	-9.83051
▁problem	-9.83193
loji	-9.83268
▁yadda	-9.83369
▁çəkən	-9.83378
▁vətəndaşların	-9.83381
▁saz	-9.83425
▁sahələrində	-9.835
▁mühafizə	-9.8353
▁başlandı	-9.83562
▁Səsi	-9.83619
▁san	-9.83727
kü	-9.83777
yəm	-9.83895
▁Xan	-9.83932
▁ha	-9.84054
▁bas	-9.84084
▁maşını	-9.84084
▁Qal	-9.8413
▁arada	-9.84141
▁Yox	-9.8415
▁Əsgərov	-9.84247
İnter	-9.84301
▁Rə	-9.84306
▁7-	-9.84314
▁bağ	-9.84427
▁kursu	-9.84577
▁Şuşa	-9.84696
▁alınması	-9.84765
▁Ser	-9.84792
ilir	-9.84938
▁sədr	-9.84971
▁olmadı	-9.85093
▁iştirakçıları	-9.85117
▁Cinayət	-9.85161
▁ka	-9.85187
▁Ata	-9.85327
▁La	-9.85395
lim	-9.85492
▁xatirəsi	-9.85507
▁deyən	-9.85544
qətlə	-9.85587
▁dua	-9.85594
▁Səfər	-9.85645
üz	-9.8567
▁tayfa	-9.85713
▁tikinti	-9.85736
▁Öz	-9.85739
▁qiymətlər	-9.85793
▁Gəncədə	-9.86012
gey	-9.86059
▁rəsm	-9.86062
eyn	-9.86077
▁şərti	-9.86079
▁gəl	-9.86084
▁ver	-9.86122
▁əlində	-9.86212
▁yüz	-9.86343
▁miqdar	-9.86414
▁yerdən	-9.86414
ləyir	-9.86415
muz	-9.86427
AN	-9.86428
▁turu	-9.86451
▁qoşunları	-9.86498
▁hadisələrin	-9.86515
var	-9.86538
▁Aİ	-9.86612
▁yeməyi	-9.86623
landı	-9.86625
▁dura	-9.86727
▁Qəhrəman	-9.86768
▁sakit	-9.86791
▁məktəbli	-9.86814
▁daşın	-9.86821
▁Əhalini	-9.86915
▁ekspert	-9.86939
▁istehlak	-9.87042
▁ö	-9.8705
▁Kimi	-9.87067
▁qızlar	-9.87107
▁Prokurorluğun	-9.87145
azil	-9.8717
▁gündü	-9.8718
▁Oxu	-9.87208
▁əsir	-9.87217
▁Məh	-9.87259
▁mahnı	-9.8727
▁Vətən	-9.87272
▁müəllif	-9.87272
▁hökm	-9.87274
▁Özbəkistan	-9.87274
▁Ünvan	-9.87274
▁məhkum	-9.87275
▁kömür	-9.87277
kəmli	-9.87277
▁təsnifat	-9.87278
▁Nəfər	-9.8729
▁Necə	-9.87297
▁yaratmaq	-9.873
▁çıxmaq	-9.87305
▁Mənzil	-9.87319
▁Nyu	-9.87321
▁məğlubiyyət	-9.87332
▁düşən	-9.87332
▁başlayacaq	-9.87333
▁Gələn	-9.87339
▁ulduz	-9.87342
▁CV	-9.87346
▁açılışında	-9.87377
▁duman	-9.87379
▁iyulun	-9.87413
▁SƏRƏNCAM	-9.87429
▁atıb	-9.87448
▁gəlmək	-9.87461
▁ermənistan	-9.87472
▁verilmişdir	-9.8748
▁Suriyada	-9.87486
yəqin	-9.87507
▁sürətlə	-9.87524
▁sev	-9.87525
▁hərəkəti	-9.87564
▁Sank	-9.87577
▁yetir	-9.87622
▁2014-	-9.87625
▁uşaqların	-9.87631
▁yalan	-9.87665
▁Leyl	-9.87688
▁bölməsin	-9.8769
altı	-9.87775
▁namizəd	-9.87832
▁rəssam	-9.87841
dikləri	-9.87842
almışdır	-9.87848
▁Burda	-9.87853
▁diqqəti	-9.88018
▁çatır	-9.8804
▁qəm	-9.8813
▁gəlmə	-9.88167
▁inqilab	-9.88194
▁Araz	-9.88211
▁sarı	-9.88258
▁nəsə	-9.88262
▁proqnozu	-9.88474
▁təzə	-9.88528
▁bilməzdi	-9.88558
lü	-9.88595
▁Ramil	-9.88611
▁Tayyi	-9.88639
▁yığması	-9.88642
▁olunduğu	-9.88645
yıb	-9.88649
▁Bar	-9.88652
▁DİN	-9.88659
▁yarısında	-9.88758
▁həkim	-9.88758
lığın	-9.88763
▁Elçin	-9.88778
lıca	-9.8887
prezidenti	-9.88873
▁istəyənlər	-9.88921
▁bazarında	-9.89055
▁mövqe	-9.89057
▁oyunlar	-9.89088
▁görüşdə	-9.89128
▁yolları	-9.89132
ylı	-9.89132
▁istə	-9.89133
▁Tədbirdə	-9.89169
▁yaxşıdır	-9.89242
▁vur	-9.89312
▁fayda	-9.89394
▁Tibb	-9.89422
laşma	-9.89445
rat	-9.89476
▁əsasını	-9.89552
▁təşkilatın	-9.89558
asiya	-9.89668
▁üzü	-9.89738
▁daxildir	-9.89794
uq	-9.89796
mu	-9.89887
▁çək	-9.89897
▁sistemində	-9.89921
lanıb	-9.89923
zə	-9.89926
▁Festivalı	-9.90007
▁Məni	-9.90064
▁Yay	-9.90082
▁elektr	-9.90091
yib	-9.90094
lanır	-9.90104
▁təcrübəsi	-9.90191
▁Emi	-9.902
▁müqaviləsi	-9.90314
▁əməkdaşlığın	-9.90378
▁Ad	-9.90419
▁bilmirdi	-9.9044
ləşir	-9.90479
▁zavodun	-9.90526
AM	-9.9054
▁istəmir	-9.9067
poçt	-9.90851
▁heyətini	-9.90852
film	-9.90989
mağı	-9.91069
tor	-9.91091
▁şərhlər	-9.91108
▁iştirakı	-9.91206
▁xatirə	-9.91259
▁bildi	-9.91282
▁raket	-9.91328
▁iqtisadiyyatı	-9.91331
▁uca	-9.9135
▁qəhrəman	-9.91361
▁Tələbə	-9.91386
▁dağı	-9.9153
dünya	-9.91632
▁26-	-9.91805
lanmış	-9.91851
▁sevinc	-9.91852
▁iclasın	-9.91918
▁Sual	-9.91929
▁Həzrət	-9.91936
▁avro	-9.91938
▁sevir	-9.91951
umu	-9.92014
iyyə	-9.92102
▁Əsəd	-9.92381
▁heyətin	-9.92436
▁120	-9.92524
▁fərman	-9.92532
▁Ev	-9.92547
▁Seyid	-9.92652
ion	-9.92678
▁Əvvəl	-9.92698
▁Kral	-9.92739
▁qərarın	-9.92814
▁www	-9.9283
▁hiperlink	-9.9283
▁məhəbbət	-9.9283
▁yaradıldı	-9.9283
▁ərəfəsində	-9.9283
▁Nigar	-9.9283
▁Portalı	-9.9283
▁təhqir	-9.9283
▁Ramazan	-9.9283
▁meyvə	-9.9283
▁lakin	-9.92831
▁Aprel	-9.92832
▁XIX	-9.92832
▁ŞOK	-9.92834
▁gizli	-9.92834
▁klassik	-9.92834
▁Sportinfo	-9.92836
▁Mehdiyev	-9.92836
▁buyurur	-9.92836
▁Sentyabr	-9.92839
▁İlqar	-9.92843
▁aləmi	-9.92848
▁ənənəvi	-9.92856
▁tutacaq	-9.92871
▁qalmışdı	-9.9288
▁ədəd	-9.92881
▁aparmaq	-9.92882
▁korrupsiya	-9.9289
▁Müğənni	-9.9289
▁imzaladı	-9.9289
▁açıqladı	-9.92891
▁keçirmək	-9.9291
▁bənzər	-9.92929
▁Dedi	-9.92934
▁payız	-9.92935
▁cəhətdən	-9.92953
▁pozulması	-9.92973
▁gedirəm	-9.92982
▁Əlbəttə	-9.92993
▁Ərəb	-9.92995
▁öldü	-9.93006
▁başlamışdır	-9.93013
▁Eldar	-9.93024
▁Dəhlizi	-9.9304
▁nəticələnə	-9.93123
▁təkmilləşdiril	-9.93134
ğına	-9.9315
▁Qan	-9.9318
▁tədbiri	-9.9318
▁bulaq	-9.93188
yır	-9.93294
▁mövzu	-9.93372
▁görülə	-9.93411
▁Hörmət	-9.93422
▁Şöbəsi	-9.93445
▁şirin	-9.93468
▁Qarabağda	-9.93473
▁çətindir	-9.93475
▁nəzər	-9.93501
▁səviyyədə	-9.93534
▁görüşlər	-9.93587
▁dilini	-9.93638
gan	-9.93672
ciyər	-9.93682
▁edilmişdi	-9.93683
▁ölkəsi	-9.93706
tr	-9.93711
han	-9.93734
▁sayt	-9.93749
▁ifa	-9.93761
Qars	-9.93947
▁etməkdə	-9.94002
▁redaktoru	-9.94004
▁hörmətl	-9.94012
▁se	-9.94127
▁təlimlər	-9.94151
düyü	-9.94192
▁gecəsi	-9.9429
▁iç	-9.94411
▁sür	-9.94441
▁kino	-9.94473
▁tərkibində	-9.94482
dim	-9.9455
ler	-9.94621
▁fərdi	-9.94643
▁Məsələn	-9.9471
ix	-9.94725
▁əsaslı	-9.94749
▁problemlər	-9.94769
▁bilərdi	-9.94775
▁Məhərrəm	-9.94901
▁aktyor	-9.94957
▁Qanun	-9.9499
▁deputatı	-9.95072
▁olduqları	-9.95095
▁budur	-9.95171
▁sektorunda	-9.95183
▁nənə	-9.95223
▁25-	-9.95234
▁artım	-9.9524
▁problemləri	-9.95339
▁gedə	-9.95382
▁acı	-9.95383
İA	-9.95407
▁qal	-9.9547
▁dağın	-9.9553
▁95	-9.95533
▁üstün	-9.95596
▁yat	-9.95597
▁səhifəsində	-9.95615
▁işçiləri	-9.95642
▁bildir	-9.95664
▁açılışı	-9.95731
zar	-9.95781
▁zərbə	-9.95783
▁boya	-9.95799
▁Qərbi	-9.95815
▁sənətkar	-9.9591
▁kompleksi	-9.95914
▁artdı	-9.95934
▁9-	-9.96047
▁məruzə	-9.96081
▁şəraitdə	-9.96083
▁Xidmət	-9.96184
lyasiya	-9.96186
▁kə	-9.96266
▁olmasını	-9.96322
▁təhlükə	-9.96344
▁sürət	-9.96368
▁təsis	-9.96404
▁varlı	-9.966
▁pensiya	-9.9661
▁Respublikasında	-9.9662
▁hazırla	-9.96629
Barselona	-9.96796
▁Re	-9.9688
▁arvad	-9.96881
Xəzər	-9.96889
Rusiya	-9.96905
▁vəhşi	-9.96998
çısı	-9.97009
baş	-9.97022
:05	-9.97023
▁xəstəliyi	-9.97122
▁yolla	-9.97147
▁ölkəni	-9.97163
▁günün	-9.97201
▁axı	-9.97227
▁prezidentləri	-9.97311
▁Günəş	-9.97343
▁12-	-9.97361
▁münasibəti	-9.97383
▁kollektiv	-9.97484
nən	-9.97712
▁gələ	-9.97728
▁bədən	-9.97787
▁komitəsi	-9.97808
▁əs	-9.97816
▁Tur	-9.97821
▁gəlmir	-9.97841
▁bilərlər	-9.97853
▁Bura	-9.97913
▁əhval	-9.9794
▁400	-9.98004
▁mar	-9.98015
▁təhsili	-9.98055
▁şeyin	-9.98158
fe	-9.98224
▁icraçı	-9.98318
▁Bunun	-9.98328
▁ruh	-9.98337
▁Sona	-9.98369
öv	-9.98391
▁zavodu	-9.98391
ldı	-9.98451
00-	-9.98547
▁xalça	-9.98582
▁əri	-9.98635
▁küçəsi	-9.98647
▁kəşf	-9.98669
▁tədqiq	-9.98679
qqəti	-9.9869
▁Cəhənnəm	-9.98712
▁Hikmət	-9.98712
▁Kabineti	-9.98712
▁etiraf	-9.98712
▁Demokratik	-9.98712
▁Tərtər	-9.98712
▁dəhliz	-9.98712
▁etdirilir	-9.98712
▁mübahisə	-9.98713
▁fikrincə	-9.98713
▁restoran	-9.98714
▁söyləyib	-9.98717
▁Bazar	-9.98718
▁düşür	-9.98718
▁Zahid	-9.98724
▁Ağayev	-9.98728
▁çəkildi	-9.98732
Zirə	-9.98732
▁BDU	-9.98738
▁Ordusu	-9.98738
▁çatdırıb	-9.98744
▁xəyal	-9.98749
▁qalxdı	-9.98753
▁portalı	-9.98765
▁Əhli	-9.98785
▁Əvvəlki	-9.98789
▁əslində	-9.98795
▁aparan	-9.98797
▁Əf	-9.98808
▁istəyib	-9.9881
▁İnstitutunda	-9.98817
15	-9.98825
▁anım	-9.98841
13	-9.98851
▁hekayə	-9.98875
▁FHN	-9.98886
▁AFFA	-9.98886
▁bahalı	-9.9889
▁xeyir	-9.98902
▁öyrən	-9.98907
▁çəkib	-9.98914
▁emalı	-9.98953
▁yaradıcılıq	-9.99014
▁dalın	-9.99017
▁xəstəliklər	-9.99052
▁en	-9.99052
▁asılıdır	-9.99124
aya	-9.99163
▁Səhər	-9.99242
▁etibarlı	-9.99245
mişəm	-9.99262
▁Çay	-9.99284
▁xoşu	-9.99298
▁fəxri	-9.99356
dıqda	-9.99368
sın	-9.99414
▁qafqaz	-9.9942
▁dövləti	-9.9945
▁Prezidentin	-9.9951
▁bər	-9.99525
▁şərt	-9.99536
▁nədən	-9.99538
▁seçkilərində	-9.99553
▁proqramları	-9.99557
▁qaçır	-9.99564
▁yaranmasın	-9.99577
▁Qol	-9.9959
14	-9.99623
▁edər	-9.99654
adi	-9.99685
▁tapa	-9.99755
▁Təbriz	-9.99774
▁Gün	-9.99784
yo	-9.99796
▁bəzən	-9.99867
▁şam	-9.99905
Aİİ	-10
▁vermə	-10.0001
ha	-10.0001
▁kimya	-10.0002
▁temperaturu	-10.0002
▁verirdi	-10.0003
lama	-10.0007
ke	-10.0014
▁J	-10.0017
ədii	-10.002
▁qaya	-10.0023
▁Ü	-10.0028
gen	-10.0032
əc	-10.004
sim	-10.0042
▁çoxdan	-10.0047
port	-10.0049
▁adət	-10.0063
övbəti	-10.0064
çar	-10.0071
▁Dini	-10.0076
▁poz	-10.0078
▁şagird	-10.008
▁mənası	-10.0085
▁heyvanlar	-10.0085
▁suallar	-10.0089
▁azərbaycanda	-10.009
res	-10.0092
▁dövrü	-10.0093
▁oxuyan	-10.0098
▁oyunun	-10.0101
▁hərəkatı	-10.0102
▁qalibləri	-10.0103
tezliklə	-10.0106
yini	-10.0107
laq	-10.0109
▁növləri	-10.0114
▁Tək	-10.0118
▁ehtimal	-10.0122
▁əmr	-10.0125
▁istər	-10.0142
▁çıx	-10.0143
▁müəssisəsi	-10.0144
23	-10.0144
▁zərər	-10.0147
▁II	-10.0164
▁İsmayılov	-10.0179
▁Texnik	-10.0189
..."	-10.0192
▁Məktəbi	-10.0201
▁ol	-10.021
▁xəbərləri	-10.0212
▁götür	-10.0219
▁Adam	-10.0221
▁Daş	-10.0229
▁çayın	-10.023
▁xidmətlər	-10.0232
▁tər	-10.0238
unçu	-10.0238
▁əf	-10.0239
▁ifadəsi	-10.0239
qu	-10.0239
▁De	-10.0241
▁qorunması	-10.0255
▁apar	-10.0255
▁Bayram	-10.0259
bəri	-10.0263
▁dərə	-10.0265
▁Mu	-10.0266
▁düz	-10.027
▁fondu	-10.0274
▁şəxsiyyət	-10.0274
▁məhəllə	-10.0277
▁qur	-10.029
▁fakt	-10.029
Ü	-10.029
▁sənəti	-10.0292
▁quyu	-10.0297
Tbilisi	-10.03
▁əlil	-10.0304
(	-10.0311
▁bərpası	-10.0311
▁məsələni	-10.0313
▁büdcə	-10.0315
nizi	-10.0324
▁ölkələrində	-10.0329
YA	-10.0341
▁xidmətində	-10.0344
AL	-10.035
mur	-10.0352
etmə	-10.0361
▁komitə	-10.0365
▁aksiya	-10.0366
▁təhlükəsizliyin	-10.0367
▁Fin	-10.0375
▁yoxlama	-10.0377
▁İrəvan	-10.0381
▁ar	-10.0381
▁normal	-10.0382
▁edil	-10.0386
▁filmi	-10.039
▁anam	-10.0395
▁Kaspi	-10.04
ƏT	-10.0402
LAR	-10.0411
▁nümunə	-10.0417
məz	-10.0422
mizi	-10.0426
▁70	-10.0427
▁kitablar	-10.0432
▁adamın	-10.0447
▁sanksiyalar	-10.0449
▁deputat	-10.045
▁diqqətini	-10.0463
▁mütləq	-10.047
▁Xanım	-10.047
▁xanın	-10.0471
▁qadınların	-10.048
▁Za	-10.0481
kan	-10.0484
▁oynayır	-10.0484
1-	-10.0486
▁qətnamə	-10.0492
anınmış	-10.0495
▁maraqları	-10.0495
▁sorğu	-10.0495
▁təbliğ	-10.0495
▁Bürclər	-10.0496
▁Cahangir	-10.0496
▁Diaspor	-10.0496
▁Nəticədə	-10.0496
▁Vaqif	-10.0496
▁mesaj	-10.0496
▁mlrd	-10.0496
▁Fuad	-10.0496
▁Müəllif	-10.0496
▁Gündəlik	-10.0496
▁rəmzi	-10.0496
▁vəsiqə	-10.0496
▁səthi	-10.0496
▁yaranıb	-10.0496
▁minimum	-10.0496
▁müxalifət	-10.0496
edici	-10.0496
▁söylə	-10.0497
▁aktual	-10.0497
▁təmsilçisi	-10.0497
▁əşyaları	-10.0497
▁bilməyib	-10.0498
▁qulluğu	-10.0498
▁İsveçrə	-10.0498
▁idarəetmə	-10.0499
▁onlayn	-10.0499
▁yağacaq	-10.0499
▁çoban	-10.05
▁yerini	-10.05
▁baxır	-10.05
▁laureatı	-10.0501
▁rolunu	-10.0502
▁SSRİ	-10.0503
▁Çıxış	-10.0503
▁qazanmaq	-10.0503
ikasiya	-10.0504
▁İyun	-10.0504
▁qalmış	-10.0505
▁Xeyr	-10.0508
▁tarixə	-10.0508
▁hey	-10.0509
▁dilin	-10.0509
▁sahilində	-10.051
▁illərində	-10.051
▁Rəsmi	-10.051
▁çoxsa	-10.0512
▁gərginlik	-10.0514
▁Sizinyol	-10.0515
▁görmək	-10.0515
▁Babayev	-10.0516
▁çəkilir	-10.0517
lanması	-10.0523
▁layihələri	-10.0524
▁mənşə	-10.0525
▁İkincisi	-10.0527
▁Facebook	-10.0527
▁şahid	-10.0528
:18	-10.0528
▁Afrin	-10.0529
▁oxunan	-10.0533
▁Siyasi	-10.0535
bo	-10.0535
▁qı	-10.0536
▁vurur	-10.0537
▁rəngli	-10.0542
iyev	-10.055
▁Bal	-10.0555
▁qabağın	-10.0555
▁almış	-10.0559
▁yaşına	-10.0559
▁oldular	-10.0565
▁bilərəm	-10.0569
▁Ö	-10.0577
▁yaradan	-10.058
▁aparır	-10.0585
▁çalışırdı	-10.0586
▁Mətndə	-10.0588
▁5-	-10.0593
▁təkan	-10.0598
▁yanaşma	-10.0604
▁ora	-10.0604
▁ordusun	-10.0607
▁sərgisi	-10.0608
▁kursları	-10.0609
▁maraqlıdır	-10.0611
▁təxribat	-10.0613
▁idmançı	-10.0619
▁çata	-10.0627
▁çıxması	-10.0627
ahir	-10.0628
▁gənclərin	-10.0628
▁Elman	-10.0644
▁əməyin	-10.0645
▁ölkələri	-10.0647
▁reaksiya	-10.0653
▁199	-10.0654
▁daimi	-10.0654
▁qaça	-10.0661
▁300	-10.0666
▁azdır	-10.0673
▁olanda	-10.0693
▁qanad	-10.0695
▁mə	-10.0695
:25	-10.0702
giz	-10.0703
▁yaşadığı	-10.0708
▁qaç	-10.0709
hallarda	-10.0711
▁kampaniyası	-10.0715
qanlı	-10.0716
vər	-10.0725
arı	-10.0729
▁saxlan	-10.0735
▁aş	-10.0735
▁Məcəlləsin	-10.0738
▁borc	-10.0738
inq	-10.0742
▁müəyyənləşdi	-10.0743
rin	-10.0744
ton	-10.0745
▁onlarla	-10.0751
▁əvvəllər	-10.0754
▁mərkəz	-10.0757
▁etməyin	-10.0758
▁günləri	-10.076
namə	-10.0764
▁qorxur	-10.0771
▁Nazirliyində	-10.0781
▁məsələlərin	-10.0788
▁çəkdi	-10.0788
▁kar	-10.0791
▁baxış	-10.0797
▁qalması	-10.0804
▁xaric	-10.0806
ərdi	-10.0807
▁dövrdə	-10.0809
▁19-	-10.0811
▁Oyun	-10.0814
▁İn	-10.0815
▁əy	-10.0815
▁əməkdaşlığ	-10.0817
▁tərs	-10.0819
▁fakültəsi	-10.082
▁dəstəyi	-10.082
▁Konstitusiya	-10.0848
▁danışıq	-10.085
▁islahatlar	-10.085
▁daşı	-10.0859
▁marka	-10.0861
▁kadr	-10.0861
ud	-10.0861
▁xəstəlik	-10.0862
▁matçı	-10.0868
▁məndən	-10.089
▁Araşdırma	-10.089
▁kəsə	-10.0892
doldurma	-10.0896
▁oyna	-10.0901
isi	-10.0903
▁boyun	-10.0904
▁sənayesi	-10.0907
▁dəyişmə	-10.0907
▁alt	-10.0907
▁statusu	-10.091
▁sakinlərin	-10.0911
▁Teatrı	-10.0914
▁sat	-10.0915
ıdır	-10.0917
▁oğurla	-10.092
▁başın	-10.0927
▁içəri	-10.0928
▁aktiv	-10.0933
▁mənbə	-10.0934
mızı	-10.0935
▁Yu	-10.0946
▁qonaqlar	-10.0952
▁rə	-10.0957
▁plan	-10.0968
▁konsert	-10.0969
▁bala	-10.0971
dil	-10.0972
kənd	-10.0972
eoloji	-10.098
▁Cavab	-10.0981
▁qaydalar	-10.0981
ABŞ	-10.0982
▁görüntüləri	-10.0983
Əliyev	-10.0983
▁haqları	-10.0986
▁sui	-10.0988
ləndi	-10.0996
▁əməkdaşlığı	-10.1001
▁turist	-10.1001
▁gəldiyi	-10.1003
▁adama	-10.1003
▁salam	-10.1008
▁11-	-10.101
Bir	-10.101
▁əsası	-10.101
:37	-10.1025
ƏR	-10.103
▁Mo	-10.1034
▁sektor	-10.104
▁seçmə	-10.104
▁37	-10.1052
▁kitabın	-10.1052
▁sağlam	-10.106
▁çatan	-10.1078
▁zəruri	-10.1085
▁narazı	-10.1086
mayın	-10.1091
▁monitorinq	-10.1096
▁qurum	-10.1099
▁mərtəbə	-10.1102
▁yetirir	-10.1107
▁salır	-10.1111
▁mis	-10.1116
▁qoy	-10.112
▁18-	-10.1124
▁qab	-10.1127
▁Millətlər	-10.1128
▁Səfir	-10.1138
▁iyul	-10.1147
▁yetirmə	-10.1148
▁güc	-10.1156
nzibati	-10.1159
▁rəsmiləri	-10.1159
Online	-10.1163
▁AZƏRBAYCAN	-10.1163
▁Assosiasiyası	-10.1163
▁Babək	-10.1163
▁Oktyabr	-10.1163
▁mikro	-10.1163
▁mübadiləsi	-10.1163
▁tədric	-10.1163
▁ASC	-10.1163
▁Fransız	-10.1163
▁ibadət	-10.1163
▁istismar	-10.1163
▁Modern	-10.1163
▁Media	-10.1163
▁dünən	-10.1163
▁çevrilib	-10.1163
▁şuşa	-10.1163
▁həmkarı	-10.1163
▁əyləncə	-10.1163
▁bildirilib	-10.1163
▁ağız	-10.1163
▁Arzu	-10.1163
▁Elektron	-10.1164
▁tutuldu	-10.1164
▁Albaniya	-10.1165
▁göstərmək	-10.1165
▁diplomatik	-10.1166
▁Şahzadə	-10.1167
▁Bəlkə	-10.1167
▁edim	-10.1167
▁sədrliyi	-10.1168
▁şahzadə	-10.1168
▁Samir	-10.1168
▁gedəcək	-10.1169
▁Əks	-10.1169
▁Kredit	-10.117
▁mətn	-10.117
▁6-	-10.117
▁kilometr	-10.1173
▁əbədi	-10.1174
▁Şair	-10.1175
▁girdi	-10.1176
▁Baku	-10.1177
:28	-10.118
▁sektorunun	-10.1181
▁Zərif	-10.1183
▁Fransada	-10.1183
▁XXI	-10.1184
ünki	-10.1188
▁zəruridir	-10.1188
▁34	-10.1189
▁yuxu	-10.1189
▁evində	-10.119
▁nəzərinə	-10.119
qat	-10.119
▁yaman	-10.1192
▁yoxsa	-10.1192
▁danışmaq	-10.12
▁hazırlanmış	-10.1201
▁işçisi	-10.1204
▁şirkətlər	-10.1208
▁Asan	-10.1209
▁bilmək	-10.1215
▁İsa	-10.1219
▁gedirdi	-10.1221
▁saxlaya	-10.1225
▁Li	-10.1226
ver	-10.1228
▁Axundov	-10.123
▁qu	-10.1231
▁alma	-10.1237
▁kənddə	-10.1243
▁hazırlaşır	-10.1246
▁Nərimanov	-10.1248
▁getdik	-10.1248
:24	-10.1258
▁qaldır	-10.1261
▁İttifaqının	-10.1263
▁od	-10.1265
▁tur	-10.1265
▁rəhbərləri	-10.1266
▁deyirdi	-10.127
▁qatarı	-10.1276
▁baxırdı	-10.1277
rd	-10.1278
▁hazırlığı	-10.1278
:21	-10.1281
▁Agentliyin	-10.1287
▁hazırdır	-10.1287
▁azər	-10.1292
▁qarış	-10.1299
▁parlamentin	-10.1302
▁orda	-10.1303
▁bənd	-10.1309
▁dinc	-10.1315
▁terrorçu	-10.1325
▁qurumları	-10.1325
▁gedər	-10.1326
30	-10.1327
▁varsa	-10.133
:53	-10.134
▁bildirə	-10.1341
▁Proqramı	-10.1342
▁tərbiyə	-10.1343
əri	-10.1351
daş	-10.1351
layan	-10.1353
▁Bey	-10.1353
▁ünvan	-10.1363
▁onda	-10.1363
▁yığ	-10.1366
lığında	-10.1366
▁bacısı	-10.1369
TA	-10.137
sından	-10.1371
▁əkin	-10.1378
▁layihələr	-10.1382
▁işçilər	-10.1383
incə	-10.1388
▁formaları	-10.1388
▁can	-10.139
▁rejimin	-10.1394
▁Sizi	-10.1398
▁İt	-10.1404
▁mərasim	-10.1405
▁minə	-10.1406
▁tədbirlərin	-10.1422
▁do	-10.1425
▁durur	-10.1425
▁Şəhid	-10.1427
▁sahələrdə	-10.1428
▁cəzası	-10.1437
▁məhsulların	-10.1437
▁başladılar	-10.1442
▁nəsil	-10.1443
▁növ	-10.1452
▁əmlak	-10.1464
nilən	-10.147
▁St	-10.1473
▁turnirin	-10.1473
▁münaqişəsin	-10.1478
▁açdı	-10.148
▁təşkilatlar	-10.148
▁xəbəri	-10.1481
▁inkişafında	-10.1482
▁atı	-10.1487
lənmiş	-10.149
▁suyun	-10.1491
qo	-10.1496
▁dam	-10.1501
▁dəyişməsi	-10.1503
İK	-10.1505
▁tr	-10.1507
▁ayağı	-10.1509
▁yeməklər	-10.151
▁qiymətləndirmə	-10.1511
▁ziyalı	-10.1512
▁bilməmiş	-10.1517
▁haq	-10.1522
bul	-10.1522
▁yarı	-10.1536
▁forum	-10.154
tel	-10.1541
▁qablar	-10.1549
▁qəlbi	-10.1552
▁Jurnalist	-10.1556
▁teatr	-10.1566
▁axşamı	-10.157
lor	-10.1571
▁ağacı	-10.1572
▁700	-10.1579
▁le	-10.1581
din	-10.1582
▁Üç	-10.1583
▁Sport	-10.1583
▁qanuni	-10.1588
▁qor	-10.1589
▁sənədləri	-10.159
▁qurtar	-10.1596
lənməsi	-10.1599
▁idmançıları	-10.1603
▁əmri	-10.1605
▁Qonaq	-10.1606
llar	-10.1607
▁əlaqəsi	-10.1607
▁vəd	-10.1608
▁cərimə	-10.1611
▁21-	-10.1613
▁məhsullar	-10.1614
▁Məhərrəmov	-10.1615
▁qoyula	-10.162
Dünya	-10.1622
Sİ	-10.1626
mışam	-10.1626
ırlar	-10.1631
gə	-10.1632
lıdır	-10.1644
▁uğur	-10.1648
ing	-10.165
▁uğurlar	-10.1651
ent	-10.1652
▁kitabxana	-10.1653
▁16-	-10.1656
ğun	-10.1658
▁texnika	-10.166
▁gəlməsi	-10.166
▁siyahı	-10.1662
▁Com	-10.1664
▁qüvvələrin	-10.1667
▁qoru	-10.1667
▁yazıçı	-10.1674
əmçinin	-10.1675
vasitə	-10.1682
▁məmur	-10.1691
caq	-10.1694
tez	-10.1695
▁şəkli	-10.1714
▁sözlər	-10.1718
şan	-10.1721
alın	-10.1726
▁bağı	-10.1726
▁istədiyi	-10.1729
▁enerjisi	-10.1729
▁hörmət	-10.1734
ko	-10.174
▁oyununu	-10.1749
▁ziyan	-10.1752
üzə	-10.1757
▁Gəlin	-10.1758
▁deputatlar	-10.1764
▁struktur	-10.1766
▁8-	-10.1766
▁Zə	-10.1767
▁Biri	-10.1772
▁otağın	-10.1777
▁Cavad	-10.1778
likdən	-10.1782
▁arzu	-10.1784
▁ölənlər	-10.1789
▁Anam	-10.179
▁qatar	-10.1793
mayan	-10.1794
▁qərarını	-10.1801
▁Şirvan	-10.1802
▁Quran	-10.1805
▁işləyir	-10.1806
▁yarış	-10.1807
çisi	-10.1809
ük	-10.1819
▁Tədqiqat	-10.182
cək	-10.182
▁müdafiəsi	-10.183
▁Avropada	-10.1833
▁həmkarlar	-10.1835
▁Anası	-10.1835
▁vasitələr	-10.1836
▁qayıtdı	-10.1837
▁Be	-10.184
▁yerləri	-10.1841
▁Milyon	-10.1842
▁şəxsə	-10.1843
▁yaranmış	-10.1845
▁dar	-10.1849
▁səmimi	-10.1861
▁anti	-10.1865
▁oxşar	-10.1867
▁tutulmuş	-10.187
▁peşəkar	-10.1871
▁başlay	-10.1873
zm	-10.1875
▁etməli	-10.1876
▁post	-10.1876
▁Tap	-10.1877
bəxş	-10.1877
əvəskar	-10.1877
▁Fondu	-10.1877
▁Latviya	-10.1877
▁Mərasim	-10.1877
▁Yunanıstan	-10.1877
▁insident	-10.1877
▁prosedur	-10.1877
▁Şabran	-10.1877
polkovnik	-10.1877
▁Fəxriyyə	-10.1877
▁VektorMap	-10.1877
▁Vurğun	-10.1877
▁hektar	-10.1877
▁həyəcan	-10.1877
▁marşrut	-10.1877
▁məzənnələri	-10.1877
▁rabitə	-10.1877
▁təsadüf	-10.1877
▁zəhmət	-10.1877
▁Nikol	-10.1877
▁Qərib	-10.1877
▁sadiq	-10.1877
▁əhli	-10.1877
▁bənzəyir	-10.1877
▁cihaz	-10.1877
▁saxlanıldı	-10.1877
▁rəqs	-10.1877
▁romantik	-10.1877
▁Yusif	-10.1877
▁Siyasət	-10.1877
▁yayılıb	-10.1878
▁Şirin	-10.1878
▁açılması	-10.1878
▁analiz	-10.1878
▁sürüşmə	-10.1878
▁prokurorluq	-10.1878
▁seçilir	-10.1878
▁nəhəng	-10.1878
▁qasım	-10.1878
▁Mərkəz	-10.1879
▁giriş	-10.1879
▁Kitabxana	-10.1879
▁inkar	-10.1879
▁musa	-10.188
▁uzunluğu	-10.188
▁qaldırıb	-10.188
nkret	-10.188
▁Əbu	-10.1881
▁yunan	-10.1881
▁filosofu	-10.1882
▁Mingəçevir	-10.1885
▁təməl	-10.1885
▁Ədəbiyyat	-10.1886
▁yazıçısı	-10.1887
▁baxıb	-10.1888
▁adətən	-10.1889
▁Qiz	-10.189
▁İnstitutunun	-10.1891
▁şəhərdə	-10.1892
▁niyyətindədir	-10.1893
▁Məlum	-10.1894
▁Açıq	-10.1897
▁33	-10.1898
▁194	-10.1898
▁Cənnət	-10.1899
▁için	-10.1899
▁Dil	-10.1901
▁İsmayıllı	-10.1903
▁məkanın	-10.1905
▁aparılması	-10.1905
onu	-10.1907
▁dayanır	-10.1911
▁faktı	-10.1911
▁ömür	-10.1913
▁Norveç	-10.1913
▁xəttində	-10.1919
▁ardın	-10.1926
▁Astara	-10.1926
▁Elektrik	-10.1927
▁ilində	-10.1928
▁Müdafiəsi	-10.1929
▁Kimya	-10.193
▁ADA	-10.1931
dərk	-10.1932
▁kəsib	-10.1933
qara	-10.1933
▁fikirlərini	-10.1944
67	-10.1949
▁yaşayırdı	-10.195
▁hazırlayır	-10.1956
▁bağlan	-10.196
▁imtahanların	-10.1961
:02	-10.1962
▁əliyev	-10.1963
▁real	-10.1966
əcili	-10.1972
prezident	-10.1981
▁otur	-10.1986
daşlıq	-10.1987
ətək	-10.1989
▁dərdi	-10.1991
▁dəyiş	-10.1993
▁gəzir	-10.1996
▁xaricdə	-10.1997
▁tar	-10.1999
mızın	-10.2002
▁aiddir	-10.2007
▁səfir	-10.201
▁qadının	-10.2013
bu	-10.2015
▁tərəfdə	-10.202
▁müharibəsi	-10.2023
▁etik	-10.2024
▁müəllimlər	-10.2032
▁Tam	-10.2033
▁zavod	-10.204
▁çağırış	-10.2053
▁kimdir	-10.2055
▁ic	-10.2056
▁çıxışında	-10.2058
▁500	-10.206
▁Məs	-10.206
▁xüsusilə	-10.2068
inki	-10.2072
▁məcburi	-10.2077
▁Ermənistanı	-10.2078
fir	-10.2079
▁tarixdə	-10.2081
▁istədiyim	-10.2083
19	-10.2089
çılar	-10.209
▁Məmməd	-10.2101
▁Seçki	-10.2102
▁olmaması	-10.2107
▁yarısı	-10.211
məyi	-10.2122
▁məktəblilər	-10.2126
▁tarixinə	-10.2126
▁məsələsin	-10.2126
▁Sab	-10.213
▁molla	-10.2134
▁Oyunda	-10.2135
▁artist	-10.2139
bay	-10.2141
8-	-10.2142
),	-10.2144
▁məbləği	-10.2146
▁Və	-10.2146
indəki	-10.2151
▁nəzarəti	-10.2154
▁mərkəzləri	-10.2154
▁Səb	-10.2156
qət	-10.2157
▁sənaye	-10.2159
:30	-10.2161
▁tala	-10.2166
▁məzarın	-10.217
▁yolda	-10.2175
▁150	-10.2184
▁nəşri	-10.2191
milli	-10.2203
▁Real	-10.2204
▁Var	-10.2213
▁Po	-10.2226
▁sakinlər	-10.2237
5-	-10.2241
▁təlimləri	-10.2243
eh	-10.2243
▁rəqib	-10.2244
▁Ver	-10.2247
▁amil	-10.225
▁cib	-10.225
▁bazarı	-10.226
▁məzun	-10.2264
▁hadisələri	-10.2276
79	-10.2279
▁oxudu	-10.2286
▁30-	-10.2286
▁güzəşt	-10.2291
▁32	-10.2296
▁vəziyyətə	-10.2308
▁xanımlar	-10.231
:03	-10.2315
yat	-10.2315
▁illiyin	-10.2315
▁kəndindən	-10.2315
▁aşiq	-10.232
▁Humani	-10.2326
uzu	-10.2329
▁obyektlərin	-10.233
▁göstər	-10.233
▁baxımı	-10.2333
▁Mahmud	-10.2334
▁olunma	-10.2337
▁cəza	-10.2339
▁səslə	-10.2343
sınlar	-10.2343
lıqlı	-10.2344
▁ehtiyatları	-10.2344
▁şirkətləri	-10.2345
▁məntəqələri	-10.2361
▁Yeri	-10.2367
9-	-10.2369
▁Rafi	-10.2381
İN	-10.2386
gin	-10.2386
tək	-10.2387
▁keçi	-10.2389
▁danış	-10.239
▁gözləyir	-10.2391
rzaq	-10.2392
▁tərkib	-10.2392
▁gil	-10.2393
▁avtomobili	-10.2393
▁mərhələdə	-10.24
▁strukturu	-10.2407
▁sərvət	-10.2414
▁oynadı	-10.2418
▁düşmən	-10.242
▁başlama	-10.2428
▁Liqa	-10.2431
▁oturdu	-10.2442
▁te	-10.2451
Cənub	-10.2464
ayrı	-10.2465
▁bunları	-10.2465
▁almağ	-10.2473
▁Ro	-10.2473
▁razılaşma	-10.2476
▁Komitə	-10.2479
ləyən	-10.248
▁problemlərin	-10.248
▁dayandı	-10.2481
heçə	-10.2483
▁maarif	-10.2485
▁böhran	-10.2485
Nar	-10.2486
Son	-10.2492
▁Yaş	-10.2492
▁baxa	-10.2495
▁gec	-10.2502
▁hə	-10.2506
ımızın	-10.2512
kləri	-10.2512
siyasi	-10.2519
▁Gi	-10.2523
▁etdim	-10.2533
▁səd	-10.2534
▁çağır	-10.2536
acağını	-10.2537
▁Bağ	-10.2545
▁ke	-10.2548
▁millətin	-10.2548
▁klubları	-10.2554
▁başqaları	-10.256
▁nur	-10.256
▁fəxr	-10.2562
▁Tez	-10.2568
▁münaqişəni	-10.257
:55	-10.2578
sin	-10.2579
▁qəzetin	-10.2582
ero	-10.2584
yun	-10.2585
▁yetiş	-10.2598
▁gir	-10.2599
▁cəmiyyəti	-10.2604
▁camaat	-10.2605
▁2010	-10.2607
▁dəhşət	-10.2611
▁qaydala	-10.2618
▁Universitet	-10.2624
▁icrasın	-10.2628
▁matç	-10.2631
▁dilindən	-10.2632
axta	-10.2634
▁aləm	-10.2634
▁nəsli	-10.2636
▁foto	-10.2638
▁Sultan	-10.2641
▁üzə	-10.2643
▁Cəlal	-10.2644
▁alban	-10.2644
▁ötür	-10.2645
▁Mehdi	-10.2646
▁Cüdo	-10.2646
▁1918-	-10.2646
▁lisenziya	-10.2646
Liverpul	-10.2646
Samsung	-10.2646
▁AzTU	-10.2646
▁Fərhad	-10.2646
▁Hollandiya	-10.2646
▁Moldova	-10.2646
▁Qırmızı	-10.2646
▁iqlim	-10.2646
▁məişət	-10.2646
▁məskən	-10.2646
▁yayıldı	-10.2646
▁Şəhriyar	-10.2646
sursat	-10.2646
▁Madrid	-10.2646
▁Natiq	-10.2646
▁bəstəkar	-10.2646
▁nikah	-10.2646
▁Polşa	-10.2646
▁muğam	-10.2646
▁tanıya	-10.2646
▁təbəqə	-10.2646
▁əmanət	-10.2646
▁tanrı	-10.2646
▁Afrika	-10.2646
▁ayrılıb	-10.2647
▁komandir	-10.2647
▁istisna	-10.2647
▁qurulur	-10.2647
▁əksəriyyəti	-10.2647
▁Əlaqə	-10.2647
rfoqrafi	-10.2647
▁xanəndə	-10.2647
▁Avstraliya	-10.2647
▁Uzun	-10.2647
▁BANM	-10.2647
▁bilmərəm	-10.2647
▁Limanı	-10.2647
▁sevgilisi	-10.2648
▁1992-	-10.2648
▁fars	-10.2648
▁çıxarır	-10.2648
▁kasıb	-10.2648
sağlığı	-10.2648
▁daşınma	-10.2648
▁radiosun	-10.2648
▁deyim	-10.2648
▁izləmək	-10.2648
yinə	-10.2648
▁şərab	-10.2648
▁Vəliyev	-10.2648
▁törədib	-10.2648
▁siyasətin	-10.2649
▁sır	-10.2649
şünaslıq	-10.2649
▁sayılır	-10.2649
▁qaçıb	-10.265
▁girib	-10.265
▁divan	-10.265
▁yaranır	-10.265
▁İbn	-10.265
▁qorumaq	-10.265
acağam	-10.2651
▁satılır	-10.2651
▁etməyəcək	-10.2652
▁şif	-10.2652
▁lent	-10.2653
▁olmadığını	-10.2654
▁Qaynar	-10.2655
▁Xüsusi	-10.2655
▁bürünc	-10.2655
▁günüdür	-10.2655
▁satmaq	-10.2655
▁gəlişi	-10.2655
▁çıxarmaq	-10.2655
▁Şəxs	-10.2656
▁qalmaqal	-10.2656
▁sərf	-10.2656
▁təhlil	-10.2656
▁oxumaq	-10.2657
▁Ekologiya	-10.2657
▁Jan	-10.2658
▁səhiyyə	-10.2659
Atletiko	-10.266
▁müəssisə	-10.2661
▁komitəsini	-10.2661
▁keçmək	-10.2661
▁cümlədən	-10.2663
▁cavan	-10.2665
belə	-10.2665
▁Osmanlı	-10.2665
▁tutulmuşdur	-10.2666
▁alınan	-10.2667
▁qaldırılması	-10.2668
müş	-10.2668
▁600	-10.2669
▁AŞPA	-10.267
▁Rəşad	-10.267
▁Vü	-10.267
▁17-	-10.267
▁qoyulması	-10.2673
▁Axır	-10.2674
çilərin	-10.2674
ayırma	-10.2676
▁mənbəyi	-10.2685
▁Yüksək	-10.2686
▁divar	-10.2686
▁budaq	-10.2691
▁sözünü	-10.2699
24.	-10.2699
▁Palatası	-10.2704
▁yatır	-10.2706
▁düymələri	-10.2707
-04-201	-10.2711
veriş	-10.2714
▁bitdi	-10.2715
▁FİFA	-10.2715
▁vəsaiti	-10.2717
eyi	-10.2719
▁yazıl	-10.2722
▁axtarır	-10.2726
▁qanunvericiliyi	-10.2727
▁hara	-10.2727
▁brendi	-10.2728
vəll	-10.2729
▁heyət	-10.2729
▁şəbəkələr	-10.2729
▁gücləndirilməsi	-10.2729
▁xərçəng	-10.2734
ment	-10.2735
▁sualları	-10.2735
▁etdirən	-10.2736
▁olduğundan	-10.2736
▁Qurani	-10.274
DI	-10.2744
▁hədə	-10.2746
▁babası	-10.2751
▁etmədən	-10.2752
▁bilmə	-10.2753
:17	-10.2754
▁qəzasın	-10.2758
▁15-	-10.276
▁bilərik	-10.2761
▁edilirdi	-10.2763
▁səmərəli	-10.277
▁qazı	-10.2773
▁Can	-10.2773
anlıq	-10.278
xi	-10.2787
▁rəis	-10.2791
▁gündəlik	-10.2791
▁hissələri	-10.2791
pa	-10.2792
▁Nazirlik	-10.2815
▁nişan	-10.2818
cam	-10.2818
art	-10.2822
:13	-10.2827
▁havada	-10.283
–	-10.2832
▁mühit	-10.2833
▁saytda	-10.2835
▁800	-10.2836
▁Məqalələr	-10.2843
▁of	-10.2856
▁qazanan	-10.2863
▁Masallı	-10.2864
▁planı	-10.2864
:57	-10.2865
▁hesabatında	-10.2866
2-	-10.2867
▁atasının	-10.2868
▁qida	-10.2869
muş	-10.2873
▁Atam	-10.2879
▁məsafə	-10.2886
▁texnikası	-10.2886
▁istəyi	-10.2887
▁məzmunu	-10.289
ser	-10.2891
▁halı	-10.2892
▁yazılmış	-10.2896
aradan	-10.2901
AR	-10.2901
▁Borçalı	-10.2906
▁Gəl	-10.2906
▁Təşkilat	-10.2906
otu	-10.291
▁formasında	-10.2911
▁Ümummil	-10.2913
▁canın	-10.292
▁ada	-10.292
▁Od	-10.2936
▁nazirliyin	-10.2942
▁ey	-10.2945
▁ayda	-10.2946
▁orqanı	-10.2949
val	-10.295
son	-10.2951
lıların	-10.2953
▁vəzifələri	-10.2958
▁komandasını	-10.2959
▁ud	-10.2959
▁görüşləri	-10.2959
▁çıxarılması	-10.2964
▁Türkiyəni	-10.2967
▁So	-10.2971
ildi	-10.2974
▁saxla	-10.2986
:48	-10.299
▁qadağa	-10.3
▁qadınları	-10.3
Star	-10.3005
▁dilimiz	-10.3007
▁Qərar	-10.3018
▁maaş	-10.3019
▁yarışların	-10.3019
▁müddətdə	-10.3023
▁məktəbə	-10.3025
ilib	-10.3025
▁Bizi	-10.3026
▁müvə	-10.3029
▁komissiyası	-10.3032
▁ağıl	-10.3038
▁qismin	-10.304
▁muzey	-10.3043
▁Əsl	-10.3043
▁Ermənistanda	-10.3046
▁2013	-10.3048
▁bölgə	-10.3048
▁maşının	-10.3049
▁məktubu	-10.3056
▁Park	-10.3057
▁qarşılıq	-10.306
▁Şəkidə	-10.3061
▁Sin	-10.3065
▁quraşdırıl	-10.3066
tir	-10.3068
▁aprelin	-10.3075
▁Hi	-10.3077
can	-10.3087
▁hərbçi	-10.3105
qaz	-10.3108
▁Müəllim	-10.3114
▁irsi	-10.3114
▁məktəblərin	-10.3121
▁otağ	-10.3127
arda	-10.3129
▁rəqəm	-10.3134
▁çıxırdı	-10.3136
▁oyununda	-10.3137
layır	-10.3146
▁Qüvvələrin	-10.3157
▁dənizi	-10.3159
▁Britaniyada	-10.3161
▁məhdud	-10.3164
mizdə	-10.3166
▁Rəsul	-10.3184
▁region	-10.3186
▁ölkəmizi	-10.319
▁yaradıcı	-10.3192
▁rayonların	-10.3199
▁Məclisi	-10.3202
▁vəkil	-10.3205
ərkən	-10.3211
▁müsahibəsin	-10.3216
▁yubiley	-10.3219
mar	-10.3227
laşır	-10.3235
▁sonu	-10.3235
▁Muzeyin	-10.3244
▁Forum	-10.325
▁ve	-10.325
▁etməkdir	-10.3251
▁keçirməy	-10.3253
▁Ziya	-10.3263
▁zona	-10.3269
▁quruluşu	-10.3269
▁dalğa	-10.3278
▁ölkələrdə	-10.3281
vil	-10.3282
▁uşaqları	-10.3284
UN	-10.3286
Bakcell	-10.3287
ınız	-10.3287
▁po	-10.3288
▁otaq	-10.3289
▁Allahı	-10.3296
Fransa	-10.3298
▁olunmasın	-10.3298
təhsil	-10.3299
eçə	-10.3302
eymur	-10.3307
▁vaxtda	-10.3307
▁dəstələri	-10.3308
men	-10.3309
bas	-10.3315
▁arx	-10.3319
▁Dost	-10.3327
▁Zaur	-10.333
ılacaq	-10.3334
▁14-	-10.3344
ülh	-10.3352
▁çanta	-10.3352
▁layihələrin	-10.3355
▁ağrı	-10.3357
▁mədəniyyəti	-10.336
▁istedad	-10.336
gün	-10.3366
▁həddi	-10.3366
mən	-10.3368
▁fəaliyyətində	-10.3369
▁boy	-10.3372
:42	-10.3374
▁qarı	-10.338
▁qayıdır	-10.3381
atma	-10.3382
▁kağız	-10.3388
▁görüşdü	-10.3392
▁görür	-10.3397
▁barmaq	-10.3398
▁təminat	-10.3403
zu	-10.3412
▁otel	-10.3412
▁tanıyır	-10.3412
dıqları	-10.3412
▁sürücülər	-10.3413
▁ailələrin	-10.3413
▁büdcəsi	-10.3416
▁gələr	-10.3419
▁xərclə	-10.3424
▁Qüvvələri	-10.3431
▁çağırır	-10.3433
▁Parlamentin	-10.3437
▁mövqeyini	-10.3438
▁Əhali	-10.344
▁ölçü	-10.3448
▁art	-10.3449
▁Uşaqların	-10.345
▁Mina	-10.3451
▁Yapon	-10.3455
▁qabiliyyət	-10.3455
▁salınmış	-10.3461
yü	-10.3465
▁krediti	-10.347
▁saxta	-10.3473
▁dastan	-10.3476
▁Ordu	-10.3476
▁Xoş	-10.3477
nergetika	-10.3478
▁qəzəb	-10.3479
▁Mühafizə	-10.3479
▁akademi	-10.3479
▁istiqlal	-10.3479
▁ümid	-10.3479
yanı	-10.3479
▁əlaqələndir	-10.348
▁Nəhayət	-10.348
▁Teleqraf	-10.348
▁fəlakət	-10.348
▁mühəndis	-10.348
▁referendum	-10.348
▁Əbdül	-10.348
Yuventus	-10.348
▁Argentina	-10.348
▁Gözəl	-10.348
▁Korrupsiya	-10.348
▁Mehman	-10.348
▁QSC	-10.348
▁Təyyarə	-10.348
▁memorandum	-10.348
▁mobil	-10.348
▁prinsipi	-10.348
▁tapılıb	-10.348
▁təşkilatçılığı	-10.348
▁Ölçü	-10.348
▁çıxarıldı	-10.348
▁əlbəttə	-10.348
▁Lider	-10.348
▁Qonşu	-10.348
▁Qətər	-10.348
▁humani	-10.348
▁yusif	-10.348
▁əfsanə	-10.348
▁meyl	-10.348
▁Verilən	-10.348
▁bədbəxt	-10.348
▁piyada	-10.348
▁öldürülüb	-10.348
▁İKT	-10.348
▁Cavan	-10.348
▁Tort	-10.348
▁şok	-10.348
▁görülüb	-10.348
▁rəhmət	-10.348
▁tapıldı	-10.348
▁oğul	-10.348
▁aktrisa	-10.348
▁çevrilir	-10.348
▁Krım	-10.348
▁Göygöl	-10.348
▁Şəmkir	-10.348
▁saxlanılır	-10.348
▁çəkilib	-10.348
▁Komanda	-10.348
▁Aydın	-10.348
▁planlaşdırılır	-10.3481
▁Mustafa	-10.3481
▁verməyib	-10.3481
▁təqsirləndiri	-10.3481
▁Tofiq	-10.3481
▁ayrıldı	-10.3481
▁dilləndi	-10.3481
▁kədər	-10.3482
▁qarışıq	-10.3482
▁Həmkar	-10.3483
▁41	-10.3483
▁Günüdür	-10.3483
▁çəkmək	-10.3484
▁Boks	-10.3484
▁olunmayıb	-10.3484
▁səhifəsi	-10.3484
▁hazırlanıb	-10.3484
▁toplayan	-10.3484
▁Dərs	-10.3484
▁niyyət	-10.3485
▁Bəli	-10.3486
▁dostluq	-10.3486
▁sənədlərin	-10.3486
▁əsil	-10.3486
▁görüşəcək	-10.3487
▁layihəsin	-10.3487
▁gəlmişəm	-10.3488
▁çağ	-10.3488
▁Müharibə	-10.3489
▁Krallıq	-10.349
▁keçəcəyi	-10.3491
trl	-10.3493
▁ştatında	-10.3493
▁iman	-10.3493
▁məxsusdur	-10.3495
▁amillər	-10.3496
▁kanalı	-10.3496
:26	-10.3498
▁ayrılan	-10.3501
▁olmazdı	-10.3501
▁Kərimli	-10.3502
▁Fələstin	-10.3505
▁Müasir	-10.3505
▁RƏSMİ	-10.3505
Qafqazinfo	-10.3506
▁tikintisin	-10.3506
▁Messi	-10.3507
▁xita	-10.3507
Apple	-10.3508
▁iddiası	-10.3508
▁alacaq	-10.3508
▁artırmaq	-10.3509
▁çəkilən	-10.3509
▁ulduzu	-10.351
yim	-10.3511
▁Sədr	-10.3511
▁qoyulmuşdu	-10.3511
▁Bax	-10.3513
▁Maraqlıdır	-10.3514
▁əz	-10.3514
-2018	-10.3516
▁millimiz	-10.3518
▁səviyyəli	-10.3518
▁qapı	-10.3518
▁dövriyyəsi	-10.3519
▁Adət	-10.3521
▁Turan	-10.3521
▁dəli	-10.3524
▁ardıcıl	-10.3527
▁Yaponiya	-10.353
▁Ku	-10.353
▁inkişafını	-10.353
▁Camal	-10.3536
▁şərtlər	-10.3538
▁Cəfərov	-10.354
▁qər	-10.3544
▁Tədris	-10.3547
▁şən	-10.3548
ləmək	-10.3548
▁bəzək	-10.3553
▁dövrünü	-10.3553
▁nüfuz	-10.3555
6-	-10.3557
▁metro	-10.3563
▁ifaçı	-10.3564
▁cavabı	-10.3565
▁Yaşa	-10.3566
:29	-10.3567
▁meydanında	-10.3578
▁ayrılması	-10.358
▁klubun	-10.3583
▁verirlər	-10.3589
▁müəssisələrinin	-10.359
▁sar	-10.3591
-11-201	-10.3597
▁Gu	-10.3597
▁yaydı	-10.3598
▁xarakterli	-10.3605
▁vergisi	-10.3606
▁verər	-10.3607
izin	-10.3611
▁dairə	-10.3612
▁ilan	-10.3614
▁əməliyyatları	-10.3614
cəyini	-10.3621
▁ordeni	-10.3622
▁qrupları	-10.3622
cari	-10.3632
▁Hüquqları	-10.3639
▁taleyi	-10.3641
▁hissəsidir	-10.3651
65	-10.3652
▁qalırdı	-10.3653
▁maneə	-10.3654
▁bayrağı	-10.3666
▁təmiri	-10.3667
▁Məsələlər	-10.367
▁edildikdə	-10.3671
▁birincisi	-10.3674
▁geyin	-10.3676
▁mövsümün	-10.3677
▁əlamət	-10.3679
▁çəkdiyi	-10.3681
muşdu	-10.3681
:40	-10.3684
▁edəcəyini	-10.3686
▁faciəsini	-10.3687
▁dolan	-10.3691
ünün	-10.3693
▁dildə	-10.3695
▁araya	-10.3695
▁təbiət	-10.3698
▁Şirkətin	-10.3706
rab	-10.3709
▁qət	-10.3711
▁ək	-10.3714
▁kampaniya	-10.3717
▁Məz	-10.3721
▁köçkünlər	-10.3722
eti	-10.3726
▁qırx	-10.3727
▁əşyalar	-10.3728
▁resursları	-10.3729
▁tikintisi	-10.373
▁yazan	-10.3733
▁həmsədrləri	-10.3734
▁adlandırılmışdı	-10.3736
▁məlumatların	-10.3736
▁fərqlən	-10.3739
▁Dədə	-10.3743
▁Va	-10.3744
əfi	-10.3748
▁çıxışı	-10.3753
▁gəlini	-10.3754
▁bildirən	-10.3761
▁ple	-10.3768
▁tələblərin	-10.3772
▁qurtara	-10.3774
▁dək	-10.3775
▁icrası	-10.3775
▁Şə	-10.3792
▁gey	-10.3794
▁doğur	-10.3799
▁işğalçı	-10.3802
▁silsilə	-10.3813
▁torpaq	-10.3816
▁fənn	-10.3818
▁Artu	-10.3821
▁hamını	-10.3823
▁hüceyrə	-10.3827
▁alimləri	-10.3829
▁dənizin	-10.3836
▁paytaxtın	-10.3838
▁zorla	-10.3853
▁0	-10.386
▁AD	-10.3863
▁qüvvələr	-10.3871
cıl	-10.3878
▁sənətin	-10.3881
▁Məsələ	-10.3885
▁Alt	-10.3887
▁Ça	-10.389
ılır	-10.3892
▁çəkirdi	-10.3899
▁bildiriblər	-10.3904
▁məntəqəsində	-10.3907
▁dairələr	-10.3909
▁Müəllimləri	-10.391
▁səbəbdən	-10.3917
vis	-10.3923
Azərbaycanın	-10.3923
▁məc	-10.3926
dor	-10.3934
▁səh	-10.3935
▁Qüds	-10.3936
▁qismi	-10.3939
▁sistemini	-10.3941
▁kral	-10.3944
▁xəstəlikləri	-10.3952
▁qalası	-10.396
▁xi	-10.3961
AT	-10.3963
▁hökumətin	-10.3965
▁Qrupu	-10.3971
tida	-10.3975
▁təhdid	-10.3979
▁23-	-10.398
▁xalqımızı	-10.3986
▁xəstəliyin	-10.3986
▁xəritə	-10.3988
madı	-10.3991
ləşdirilmiş	-10.3992
mızda	-10.3995
▁yollarını	-10.3998
▁alanlar	-10.3999
▁işğalı	-10.4
▁PA	-10.4007
▁hissəni	-10.4011
▁Saytda	-10.4015
▁xanımları	-10.4015
▁edirsiniz	-10.4027
▁sahibləri	-10.4028
▁gündəm	-10.403
▁onlardan	-10.404
▁Adı	-10.404
▁Günün	-10.4042
▁mükafatlandırıl	-10.4047
▁surəti	-10.405
▁Mü	-10.4055
IN	-10.4062
▁itirdi	-10.4062
▁növü	-10.4065
vət	-10.4069
:46	-10.4069
▁qənaət	-10.4073
▁mil	-10.4076
▁elmlər	-10.4082
▁boz	-10.4093
▁etdikdə	-10.4095
▁bağça	-10.4099
▁azadlığ	-10.4103
çay	-10.4107
100	-10.4115
▁imkanlar	-10.4115
▁yenilik	-10.4121
▁fi	-10.4124
şir	-10.4125
▁artması	-10.4127
▁düş	-10.413
▁198	-10.4132
▁fəlsəfəsi	-10.414
ze	-10.4148
▁onunla	-10.415
ləşən	-10.4151
▁danışmağ	-10.4154
▁şad	-10.4155
▁uçuş	-10.4164
▁təşkilatların	-10.4164
dov	-10.4173
▁anlayışı	-10.4174
odur	-10.4177
▁azal	-10.4191
▁ölümü	-10.4193
▁hücumu	-10.4193
Manç	-10.4194
▁şəxsləri	-10.4196
ms	-10.4201
▁Ukraynada	-10.4207
Elm	-10.4207
▁atlet	-10.421
▁təhlili	-10.4211
▁kəşfiyyat	-10.4215
Avropa	-10.4215
▁Oğlu	-10.4215
OR	-10.4217
liyini	-10.4219
ılması	-10.4221
▁həyatında	-10.4231
▁səlahiyyətləri	-10.4236
lma	-10.4237
▁Murad	-10.424
▁kəl	-10.4242
▁qaytar	-10.4246
▁baba	-10.4265
▁altı	-10.4266
dirlər	-10.4269
Onlar	-10.4274
▁Məmmədovu	-10.4275
▁qismə	-10.4289
▁nəticəsi	-10.4294
lanırdı	-10.4299
▁ənənələri	-10.4299
21-	-10.43
▁maşınları	-10.4304
▁əmir	-10.4305
tnik	-10.4306
sm	-10.4317
▁olurlar	-10.4318
▁cild	-10.4321
▁tutul	-10.4326
▁ayırdı	-10.4328
▁nazirləri	-10.4328
▁İnkişafı	-10.4331
▁Şəhərin	-10.4333
▁tarixindən	-10.4336
▁festival	-10.4336
▁ib	-10.4339
▁ideya	-10.434
AD	-10.434
▁bitir	-10.4342
nalı	-10.4344
▁təkb	-10.4348
▁Aqr	-10.4361
▁tikili	-10.4362
▁nəzəri	-10.4363
▁yarışı	-10.4368
▁gərək	-10.4369
:10	-10.4375
▁vermişdi	-10.4377
▁Şirkəti	-10.4377
lis	-10.438
▁düşünür	-10.4385
lobal	-10.4385
▁dəstəkləyir	-10.4385
▁Uğur	-10.4385
oğma	-10.4386
▁AXC	-10.4387
▁radio	-10.4387
▁abunə	-10.4388
▁Hakim	-10.4389
▁Macarıstan	-10.4389
▁borçalı	-10.4389
▁rüşvət	-10.4389
▁təhrif	-10.4389
▁Ədalət	-10.4389
Arsenal	-10.4389
Avrasiya	-10.4389
▁Konfutsi	-10.4389
▁Kürdəmir	-10.4389
▁Kəlbəcər	-10.4389
▁Metbuat	-10.4389
▁ideal	-10.4389
▁ismayıl	-10.4389
▁işgəncə	-10.4389
▁köməyi	-10.4389
▁nüvə	-10.4389
▁prioritet	-10.4389
▁rəqabət	-10.4389
▁töhfə	-10.4389
▁çörəyi	-10.4389
▁Rabitə	-10.4389
▁sevimli	-10.4389
▁xeyriyyə	-10.4389
▁yüksəl	-10.4389
▁bərəkət	-10.4389
▁mülki	-10.4389
Vision	-10.4389
▁Təklif	-10.4389
▁Qəbul	-10.4389
▁cüdo	-10.4389
:52	-10.4389
▁yaradıb	-10.4389
▁xüsusiyyətləri	-10.4389
▁Tovuz	-10.4389
▁abadlıq	-10.4389
▁xvii	-10.4389
▁rəğbət	-10.4389
▁Cəbrayıl	-10.4389
▁pilot	-10.4389
▁İsti	-10.4389
▁Portuqaliya	-10.4389
▁Bağırov	-10.4389
▁Göyçay	-10.4389
▁heyrət	-10.4389
▁radikalizm	-10.4389
▁Ümumiyyətlə	-10.4389
Ümid	-10.4389
▁möhtəşəm	-10.4389
▁təqribən	-10.4389
▁uğradı	-10.4389
▁porn	-10.4389
▁açılır	-10.4389
▁səkkiz	-10.439
▁qoyulub	-10.439
▁təəssüf	-10.439
▁rübün	-10.439
▁İclas	-10.439
▁etdirib	-10.439
▁oturub	-10.439
▁Rəsulzadə	-10.439
▁təsdiqlənib	-10.439
▁küll	-10.439
▁itirib	-10.4391
▁buraxılıb	-10.4391
▁nağıl	-10.4391
▁auditor	-10.4391
▁Hesabat	-10.4392
▁Proses	-10.4392
▁doğurur	-10.4392
▁Sağlamlıq	-10.4392
▁link	-10.4392
▁dayaq	-10.4393
▁Keçən	-10.4393
▁demokratiya	-10.4393
▁Yenilənib	-10.4393
▁oyunçu	-10.4394
▁tapıb	-10.4395
▁hərrac	-10.4395
▁çevrilə	-10.4395
▁yetirib	-10.4395
▁sürüb	-10.4395
▁misal	-10.4395
▁zir	-10.4396
▁Bildirili	-10.4396
▁qarşıdurma	-10.4396
▁Rəf	-10.4396
▁oxucu	-10.4397
▁əyri	-10.4398
▁salmaq	-10.4398
▁yaddaş	-10.4398
▁2019	-10.4398
▁Strateji	-10.4399
▁ombudsman	-10.4399
▁Aleksand	-10.4399
ydi	-10.4399
▁iştirakçısı	-10.4399
▁qurmaq	-10.44
▁təh	-10.4404
▁deyərlər	-10.4404
▁Pro	-10.4405
▁tank	-10.4406
▁baxmaq	-10.4406
▁getməyə	-10.4407
▁əhvalatı	-10.4407
▁əzəl	-10.4408
▁Azərbaycanı	-10.4411
▁zindan	-10.4412
▁üzr	-10.4413
▁bankın	-10.4415
▁Miqrasiya	-10.4417
▁Paris	-10.4417
▁AXCP	-10.4419
▁məskunlaşması	-10.4419
▁getmişdi	-10.4422
▁kəmər	-10.4423
▁mərhələyə	-10.4427
▁varmı	-10.4427
▁Tel	-10.4427
▁sabitlik	-10.4428
▁Sev	-10.4429
▁HD	-10.443
▁get	-10.4431
▁Toma	-10.4432
▁axtar	-10.4434
▁Sonrakı	-10.4434
▁komandaları	-10.4435
▁olmalı	-10.4435
▁düşmüş	-10.4437
▁universitetdə	-10.4439
ütlə	-10.444
▁məmməd	-10.4442
91	-10.4443
▁Ge	-10.4447
▁qoşun	-10.4448
▁keçirən	-10.4448
mp	-10.445
▁Beyt	-10.4452
▁Paşayeva	-10.446
icat	-10.4461
▁müstəqilliyinin	-10.4463
▁təs	-10.4464
▁regionda	-10.4469
▁dol	-10.4469
▁Yaqub	-10.447
▁dairəsi	-10.447
▁03	-10.447
▁Serbiya	-10.4471
▁xət	-10.4471
▁müxbiri	-10.4473
▁bilirdi	-10.4474
▁qalmışdır	-10.4476
▁meyiti	-10.4481
dilli	-10.4486
▁əməliyyatı	-10.4489
▁qeydiyyatda	-10.4489
▁Məncə	-10.4493
▁oyunda	-10.4494
▁AZN	-10.4494
▁uşağın	-10.4495
acar	-10.4498
▁namizədliyini	-10.4499
▁gəlmişdir	-10.4501
▁tərəfdarları	-10.4503
▁soy	-10.4506
vari	-10.451
▁xatırla	-10.4518
▁Klubu	-10.4524
▁Bat	-10.4529
▁verirəm	-10.4531
laşıb	-10.4537
▁komandalar	-10.4537
▁dik	-10.454
▁məşq	-10.4543
▁hazırlaş	-10.4548
▁İraqda	-10.4549
▁əsgərlərin	-10.4551
▁mənbələrdə	-10.4551
▁sinifdə	-10.4552
:12	-10.4553
▁Mis	-10.4557
000	-10.4565
laşa	-10.4568
▁qov	-10.457
▁istəyirlər	-10.4572
▁növbə	-10.4581
▁axtarışda	-10.4584
▁kollektivi	-10.4585
▁85	-10.459
uray	-10.4592
▁48	-10.4593
▁edildiyi	-10.4594
▁alınır	-10.4601
▁Toy	-10.4603
▁yəhudi	-10.4603
afi	-10.4614
▁nazirini	-10.4615
▁qalmaq	-10.4617
▁tutar	-10.4619
den	-10.462
▁qanunun	-10.4621
▁təkliflər	-10.4627
illik	-10.4628
▁sel	-10.4631
▁məhsulu	-10.4631
masını	-10.4636
▁qapıçı	-10.4638
ğunu	-10.4641
▁rəsmisi	-10.4646
▁fərqlənir	-10.4654
▁ərizə	-10.4656
iyanın	-10.4659
▁duz	-10.4659
ld	-10.4663
anda	-10.4666
▁çayını	-10.4669
▁qurumların	-10.4669
▁prezidentliy	-10.467
▁təmiz	-10.4671
▁manatın	-10.4673
Net	-10.4675
▁konfransın	-10.4678
▁düşün	-10.4678
▁dram	-10.468
▁mətbuatı	-10.4681
nızda	-10.4682
▁sanksiyaların	-10.4685
şək	-10.469
qla	-10.4693
kəs	-10.4694
▁insana	-10.4694
▁ağacın	-10.4695
ılmaz	-10.47
▁bəyanatlar	-10.4704
▁olacaqdır	-10.4707
▁çıxara	-10.4712
▁hakimi	-10.4714
sis	-10.4715
▁səsləndir	-10.4716
▁əlaqədə	-10.472
ce	-10.472
▁inanır	-10.4727
ger	-10.4729
▁bəd	-10.473
▁Neftçi	-10.473
▁İnter	-10.4733
emek	-10.4734
vel	-10.4735
▁məntəqələrin	-10.474
▁yaxa	-10.4744
▁şəbəkələrdə	-10.4744
ırdılar	-10.4744
▁investisiyalar	-10.4751
lənib	-10.4755
▁Cəmiyyət	-10.4756
avaş	-10.4762
şərqində	-10.4767
▁məktəblərində	-10.4773
▁aşağıda	-10.4775
yir	-10.4775
ilmişdir	-10.478
abil	-10.4781
▁mexanizm	-10.4782
mər	-10.4785
▁Qarşı	-10.4785
▁addımlar	-10.4786
▁Hara	-10.4794
portal	-10.4797
▁kamera	-10.4801
ixt	-10.4802
zan	-10.4807
▁ideyası	-10.4809
▁məscid	-10.4813
▁jurnalistlərin	-10.4814
▁To	-10.4819
Yeni	-10.4819
▁qoyuldu	-10.4819
▁istəsə	-10.4823
▁çağırdı	-10.4825
▁məhdudlaşdırıl	-10.4834
▁adıdır	-10.4838
EL	-10.4838
mayacaq	-10.4838
▁ayır	-10.4842
▁forumu	-10.4848
▁Üçün	-10.4849
▁Mar	-10.4853
▁mühiti	-10.4854
▁kam	-10.4858
▁kon	-10.4866
öz	-10.4873
▁qaydaların	-10.4881
▁başçı	-10.4885
▁Həkim	-10.4887
▁baxmağ	-10.4895
▁Tər	-10.4895
▁ayrıc	-10.4896
▁He	-10.4898
▁şeiri	-10.4899
oyunca	-10.4905
▁prinsipləri	-10.4912
üb	-10.4912
▁çatdırır	-10.4915
06	-10.4917
▁məbləğ	-10.4923
▁yayılmışdı	-10.4924
▁uzaqda	-10.493
rs	-10.4932
▁küçələr	-10.4939
ektor	-10.494
:44	-10.4945
▁yağı	-10.4948
Ö	-10.495
▁universitet	-10.4954
onun	-10.4955
▁fəaliyyətin	-10.4956
▁filial	-10.4958
▁mənbələr	-10.496
▁dağıl	-10.4962
▁ҽ	-10.4963
▁cəhdi	-10.4967
18	-10.4971
say	-10.4972
▁Oyunların	-10.4983
▁Tibbi	-10.4984
▁burax	-10.499
▁gəz	-10.4991
▁Cümhuriyyət	-10.5
lat	-10.5001
▁gələcəyi	-10.5001
DA	-10.5002
▁kimliyi	-10.5006
▁Azərbaycanlılar	-10.5013
▁dəstəsi	-10.5015
▁xanımın	-10.5019
▁nar	-10.5021
▁sirri	-10.5024
ari	-10.5028
▁xalqlar	-10.5029
xanı	-10.5032
▁büdcəsin	-10.5034
ımızda	-10.5041
▁göstərdi	-10.5041
▁almışdı	-10.5043
▁gəncə	-10.5045
üstü	-10.5052
▁hissəsini	-10.5054
▁modeli	-10.5057
▁xala	-10.5068
cən	-10.5071
▁gen	-10.5072
▁islahatları	-10.5078
▁qurdu	-10.5078
7-	-10.5083
mit	-10.5091
▁Pakistanda	-10.5093
▁baha	-10.5094
▁mər	-10.5094
ash	-10.5095
▁oğlum	-10.51
ional	-10.5104
▁nefti	-10.5106
▁baza	-10.5108
▁məruzəsi	-10.5125
▁məqalələri	-10.5131
mədi	-10.5132
▁arası	-10.5134
▁bila	-10.5141
▁Pe	-10.5142
▁bilə	-10.5143
▁HƏ	-10.5143
▁saytında	-10.5148
▁mənasını	-10.5155
llər	-10.5159
▁icma	-10.5162
▁filmin	-10.5163
xanlı	-10.5165
▁kateqoriya	-10.5166
▁biləcəyi	-10.5169
-19	-10.5173
▁İlin	-10.5182
kənar	-10.5183
▁Pənah	-10.519
▁Say	-10.5195
▁diş	-10.5196
▁atleti	-10.5201
▁davamlı	-10.5202
Heydər	-10.5208
Dövlət	-10.5208
▁Rüstəm	-10.5208
▁geyimləri	-10.521
Bizim	-10.5215
▁sertifikat	-10.522
▁Qum	-10.5228
▁işləmə	-10.5229
▁yarandı	-10.5235
60	-10.5236
acaqdır	-10.5254
▁dəyərləri	-10.5259
:35	-10.5264
▁taxt	-10.527
▁ermənilərin	-10.5272
▁xərçəngi	-10.5275
▁(2	-10.5277
▁arzusu	-10.528
▁seçim	-10.5281
▁məhdudlaşdır	-10.5281
▁cədvəli	-10.5284
▁Mas	-10.5286
▁İstehsal	-10.5291
▁inci	-10.5291
▁universitetin	-10.5291
▁mövzular	-10.5295
▁64	-10.5299
▁Qarı	-10.5299
gedən	-10.5301
▁verməsi	-10.5302
▁əsərlərin	-10.5304
▁Reseptlər	-10.5305
▁bitki	-10.5305
Azər	-10.5305
▁adlar	-10.5318
▁Kərim	-10.532
dırma	-10.532
arkən	-10.5322
▁dövlətlərin	-10.5325
▁Ab	-10.5328
▁Qarayev	-10.533
▁avto	-10.5331
▁əlaqələrin	-10.5339
▁verilmiş	-10.535
▁Baba	-10.5351
DƏ	-10.5352
▁tələbələrin	-10.5352
▁keçmə	-10.5358
▁demişdi	-10.5365
▁keyfiyyətl	-10.5366
▁cinayətlər	-10.5366
:15	-10.5368
▁minnətdarlı	-10.5368
▁gətirildi	-10.5369
▁Haqq	-10.5371
▁qəsəbə	-10.5373
▁payı	-10.5374
▁gücləndir	-10.5377
▁bölüm	-10.5378
▁avtomobillərin	-10.5379
▁nəql	-10.5379
▁Rasi	-10.538
leri	-10.5382
▁məsləhətçi	-10.5382
▁memar	-10.5382
▁zidd	-10.5382
▁statistik	-10.5383
▁Oruc	-10.5383
▁müəssisələrin	-10.5384
ərvətlər	-10.5384
▁həyət	-10.5385
lüyün	-10.5385
▁döş	-10.5385
▁mövzusu	-10.5385
▁həqiq	-10.5386
üdrət	-10.5386
▁nizam	-10.5387
▁ehti	-10.5387
▁müsahibəsi	-10.5388
▁həbsdə	-10.5389
▁UNEC	-10.5389
▁bıçaq	-10.5389
ACAQ	-10.5389
aviqasiya	-10.5389
güzar	-10.5389
xarakteristikası	-10.5389
▁DADLI	-10.5389
▁Fəaliyyət	-10.5389
▁Kateqoriya	-10.5389
▁Rekord	-10.5389
▁alternativ	-10.5389
▁doqquz	-10.5389
▁fəlsəfi	-10.5389
▁helikopter	-10.5389
▁irəliləyiş	-10.5389
▁könüllü	-10.5389
▁rəvayət	-10.5389
▁təxirə	-10.5389
▁yumurta	-10.5389
▁yüngül	-10.5389
▁çatdırılıb	-10.5389
▁Ələsgər	-10.5389
İstirahət	-10.5389
▁Enerji	-10.5389
▁Yevlax	-10.5389
▁Yunayted	-10.5389
▁iyirmi	-10.5389
▁küləyi	-10.5389
▁pozuntuları	-10.5389
▁Ankara	-10.5389
▁Aşura	-10.5389
▁Reseptleri	-10.5389
▁adlandırıb	-10.5389
▁verilmir	-10.5389
▁Reklam	-10.5389
▁etdirilib	-10.5389
▁gəlmişkən	-10.5389
▁sərmayə	-10.5389
▁tacir	-10.5389
▁Tiflis	-10.5389
▁Fizik	-10.5389
▁MSK	-10.5389
▁matəm	-10.5389
▁Öndər	-10.5389
▁etdiriləcək	-10.5389
▁gətirilən	-10.5389
▁Enter	-10.5389
▁dəyişkən	-10.5389
▁yağıntı	-10.5389
▁Elnur	-10.5389
YABR	-10.5389
▁DTX	-10.5389
▁daşnak	-10.5389
▁Keçəl	-10.5389
▁pozulub	-10.5389
▁buludlu	-10.539
▁seçildi	-10.539
▁Qərargah	-10.539
▁Məzmun	-10.539
▁vadar	-10.539
▁qışqır	-10.539
▁İordaniya	-10.539
▁Laçın	-10.539
▁valeh	-10.539
▁bölgəsində	-10.539
▁danışığı	-10.539
▁göstərəcək	-10.5391
tensia	-10.5391
▁müdafiəçisi	-10.5391
▁Livan	-10.5391
▁vurulub	-10.5391
▁Dünən	-10.5391
▁Meşə	-10.5391
▁axtaranlar	-10.5391
▁təşəbbüsü	-10.5391
▁ərzaq	-10.5391
▁cavad	-10.5391
▁Pekin	-10.5391
▁meri	-10.5392
▁öyrənmək	-10.5393
▁çatacaq	-10.5393
▁aşkarlanıb	-10.5393
▁magistral	-10.5393
▁obyektiv	-10.5393
▁gimnastikası	-10.5394
▁Abdullah	-10.5394
▁keçəcək	-10.5394
▁batır	-10.5394
▁Usta	-10.5394
▁beyin	-10.5394
▁saniyə	-10.5394
▁hazırlanır	-10.5394
▁38	-10.5394
▁işlənməsi	-10.5395
▁İnzibati	-10.5396
:45	-10.5396
▁Bayramov	-10.5398
▁fut	-10.5399
▁hamilə	-10.5399
▁Paytaxt	-10.54
▁Söhbət	-10.54
▁göstərib	-10.54
▁Üzeyir	-10.54
▁azalıb	-10.54
▁Nəzər	-10.54
▁çatmışdır	-10.54
▁Axtarış	-10.5401
▁qaydasında	-10.5401
▁diqqətə	-10.5401
▁gərginliyi	-10.5402
▁planlaşdırır	-10.5402
▁bilirsən	-10.5402
ləşdirmə	-10.5402
▁biliklər	-10.5402
▁ÇL	-10.5403
▁artırıb	-10.5403
banı	-10.5406
qədəm	-10.5406
▁yaşamış	-10.5408
▁Gəncəvi	-10.5411
▁həddə	-10.5413
▁sinəsin	-10.5413
▁getmə	-10.5414
▁alaraq	-10.5415
▁yazmışdır	-10.5417
▁gərəkdir	-10.5417
▁gətirmək	-10.5418
▁erkən	-10.5418
▁bələd	-10.5419
▁İsgəndər	-10.5419
▁İntellekt	-10.542
▁QHT	-10.542
▁qrafik	-10.542
▁etdiyimiz	-10.5421
▁qurub	-10.5421
mazdı	-10.5421
▁Xətai	-10.5421
▁təminatı	-10.5422
▁Dilin	-10.5424
▁yaradılan	-10.5424
▁demişdir	-10.5425
▁qayna	-10.5428
▁ria	-10.5429
▁missiyası	-10.5433
linq	-10.5434
▁düyməsi	-10.5435
▁əksər	-10.5436
▁regionun	-10.5442
▁anbar	-10.5443
▁çıxmır	-10.5446
əhmdar	-10.5446
▁Əsər	-10.5448
▁müşavirə	-10.5449
▁qiymətləri	-10.545
:41	-10.5452
▁Bərdə	-10.5452
▁qanunlar	-10.5453
▁soruşur	-10.5455
▁buraxılması	-10.5458
▁2012-	-10.5458
çıların	-10.5459
▁formalaşması	-10.5459
▁Zəhra	-10.546
▁1/	-10.5461
▁qəlb	-10.5464
▁dilə	-10.5464
▁54	-10.5465
▁Xali	-10.5466
▁atıl	-10.5469
▁VƏ	-10.547
▁Statistika	-10.5471
▁hələlik	-10.5473
▁istəyirsən	-10.5474
▁gü	-10.5474
▁Qran	-10.5475
▁Reseptləri	-10.5476
mal	-10.5479
▁bilərsən	-10.5481
▁araşdırılma	-10.5483
▁törətdi	-10.5484
▁maddəsi	-10.5486
misən	-10.5488
▁eşq	-10.5489
əlinə	-10.5492
▁dərya	-10.5492
:54	-10.5493
▁fel	-10.5503
▁Səlim	-10.5503
:36	-10.5503
abad	-10.5507
of	-10.5509
-2018-	-10.5509
maqda	-10.5524
faq	-10.5524
▁toxunma	-10.5526
▁sərhədində	-10.5526
xo	-10.5527
▁Vahi	-10.5528
uk	-10.553
▁kommun	-10.5534
məsində	-10.5538
▁vuran	-10.5542
▁kafedrasın	-10.5542
▁Sərəncamı	-10.5543
irlər	-10.5545
▁rejissoru	-10.5549
▁sına	-10.555
▁qoşunu	-10.5551
▁Müsəlmanları	-10.5551
▁şəhidlər	-10.5556
▁gətirər	-10.5559
▁münaqişə	-10.5561
▁Kərimov	-10.5564
▁etsə	-10.5567
▁artmışdı	-10.5567
▁yeyər	-10.5572
▁197	-10.5576
▁nəticədə	-10.5578
lamağa	-10.558
▁mütəxəssis	-10.5585
▁şir	-10.5588
▁şər	-10.5597
ımın	-10.5598
▁50-	-10.5599
▁Novruzov	-10.5601
▁Qo	-10.5602
▁Cor	-10.5604
sevər	-10.5604
▁Şa	-10.5605
▁Bilik	-10.5606
:34	-10.5607
▁səbəblər	-10.561
▁fər	-10.561
▁futbolçular	-10.5613
▁təyyarəsi	-10.5616
▁ley	-10.5618
▁tərəfində	-10.5619
▁şeirlər	-10.562
▁əllərini	-10.5621
▁qoyan	-10.5623
▁durumu	-10.5627
▁dəfədən	-10.5633
▁nümayəndələrin	-10.5634
▁musiqisi	-10.5645
▁dəmiryol	-10.5645
▁təmas	-10.5647
▁açır	-10.5652
▁malı	-10.5653
▁avtomobilin	-10.5655
▁biletləri	-10.5655
▁harada	-10.5656
▁yetirilməsi	-10.5658
anılmaz	-10.5659
▁funksiya	-10.566
▁əsrə	-10.5664
▁paltarı	-10.5665
BA	-10.5671
▁Dubay	-10.5673
▁gediş	-10.5676
▁Atası	-10.5685
▁mağaza	-10.5688
▁konserti	-10.5692
▁ifadələr	-10.5693
▁reytinq	-10.57
▁Qab	-10.5701
▁çalışmış	-10.5702
▁gu	-10.5705
roma	-10.5709
▁tir	-10.5712
▁aləmin	-10.5712
▁tutmadı	-10.5714
▁qələbəsi	-10.5718
▁halları	-10.5722
bey	-10.5732
▁şiş	-10.5739
▁əvvəlində	-10.5742
tka	-10.5744
mizə	-10.5748
▁sessiyası	-10.5749
▁yerlə	-10.5751
▁sistemləri	-10.5751
▁pulu	-10.5753
▁yekunların	-10.5768
▁salon	-10.5769
▁proqramlar	-10.577
▁nazirin	-10.5772
▁razılığ	-10.5772
▁bel	-10.5773
▁vermirdi	-10.5777
ləndirilmişdir	-10.5782
▁Sta	-10.5783
▁46	-10.5786
▁danışan	-10.579
bil	-10.5792
▁əvvəllərində	-10.5797
▁paylaşma	-10.5798
ovu	-10.5804
▁abidə	-10.5805
▁Cinayətlər	-10.5807
▁biç	-10.5808
▁əşya	-10.5808
▁tən	-10.581
sam	-10.5814
▁üzləş	-10.5821
etik	-10.5825
▁dinlə	-10.5833
▁şeydir	-10.5838
▁qatıl	-10.5838
lığını	-10.5839
▁ailələr	-10.5839
▁Roma	-10.5839
▁Vaşinqton	-10.584
▁azarkeş	-10.5847
▁şübhəl	-10.5849
▁Naz	-10.5855
ku	-10.5859
▁xidmətini	-10.5861
▁partiyası	-10.5868
▁tələbləri	-10.5872
▁məhsullarını	-10.5876
▁tariximiz	-10.5883
▁avtomat	-10.5883
▁şirkətlərin	-10.5884
dıqca	-10.5889
▁məzunları	-10.5899
▁Bunları	-10.59
▁normaları	-10.5903
▁çıxardı	-10.5905
▁səsini	-10.5905
▁başdan	-10.5908
məyib	-10.5915
▁bizdən	-10.5917
▁proseslər	-10.5917
aleh	-10.5919
▁edəcəklər	-10.5923
▁rayonlar	-10.5932
▁binasını	-10.5936
▁viza	-10.5938
▁yollarda	-10.5943
so	-10.5956
▁Şəhərdə	-10.5959
nc	-10.5961
▁danışa	-10.5963
▁demə	-10.5964
ərsə	-10.5968
ziya	-10.5968
kim	-10.5973
▁körpə	-10.5979
▁sahibkarlar	-10.5986
▁ram	-10.5986
üstə	-10.5987
▁olu	-10.599
▁bədəni	-10.5991
yağdı	-10.5993
▁bədənin	-10.5995
78	-10.6007
▁Yana	-10.6008
▁Man	-10.6018
▁yaxınlaşdı	-10.6019
▁siyasətçi	-10.6019
▁Sığorta	-10.6022
ompas	-10.6025
axan	-10.6026
ləyib	-10.6036
rah	-10.6039
vermə	-10.6047
▁banklar	-10.6051
▁ofisi	-10.6052
▁Faizi	-10.6058
▁suallarını	-10.6058
tinin	-10.6066
▁sayında	-10.6072
▁səviyyə	-10.6072
▁bilmişdi	-10.6074
▁Texnologiyalar	-10.6078
▁diplom	-10.6086
▁müəssisələri	-10.6088
▁yaratdığı	-10.6091
▁qızını	-10.6094
bit	-10.6109
ael	-10.6112
▁tutmuş	-10.6114
▁şans	-10.6117
▁münasibətlərin	-10.6117
▁Forumun	-10.6118
▁nümunəsi	-10.6118
▁texnologiya	-10.6124
ate	-10.6126
▁xas	-10.6126
▁07	-10.6128
bəyli	-10.6134
▁evdən	-10.6138
▁buraxıl	-10.614
▁xa	-10.6145
Amerikan	-10.6146
▁benzin	-10.615
▁Şura	-10.6158
▁ədəbiyyatın	-10.6164
est	-10.6164
kdə	-10.6172
▁şəhərini	-10.6175
▁Ziyalı	-10.618
uru	-10.6185
qlarını	-10.6189
▁Ur	-10.619
▁Şərqi	-10.6195
təl	-10.6205
▁şərəfl	-10.6205
hra	-10.6206
▁Tut	-10.6207
▁Qul	-10.6211
▁sessiyasın	-10.6214
▁təyinatlar	-10.6215
▁edəcəyi	-10.6216
▁Sərhəd	-10.6218
izdə	-10.6218
▁nəfəsi	-10.6218
▁damar	-10.6218
▁yaratmışdı	-10.6221
▁görmə	-10.6233
▁sübut	-10.6237
metr	-10.6239
w	-10.6243
▁olmağı	-10.6245
▁dəyişil	-10.6247
▁material	-10.6249
▁evlərin	-10.6249
▁İstifadə	-10.6252
▁qədərdir	-10.6257
▁bilet	-10.6258
▁çərşənbə	-10.626
ret	-10.6266
▁kuboku	-10.6267
▁dövrün	-10.6268
ahid	-10.6272
do	-10.6273
▁Qaydalar	-10.6273
▁vəzifəsini	-10.6283
▁qarşısı	-10.6283
68	-10.6286
▁şəbəkəsin	-10.6287
▁oxun	-10.6292
▁veriblər	-10.6293
▁Co	-10.6296
Bank	-10.6306
mət	-10.6311
▁55	-10.6314
Neft	-10.6316
Ölkə	-10.6317
Hazır	-10.6318
▁hərəkatın	-10.6321
dəfə	-10.6324
▁pişik	-10.6324
▁rayonda	-10.6326
çək	-10.6329
▁etdik	-10.633
▁Sərəncam	-10.633
Hər	-10.6333
▁yaşadı	-10.6334
▁vəziyyətin	-10.6347
▁98	-10.6347
▁02	-10.6352
▁avadanlıq	-10.6354
▁to	-10.6355
▁qay	-10.6361
▁sahələr	-10.6371
▁akt	-10.6379
▁formal	-10.6387
▁istiqaməti	-10.6391
▁çəkə	-10.6391
▁Sağ	-10.6392
▁don	-10.6392
▁oya	-10.6392
▁Sara	-10.6394
▁Alim	-10.6396
▁Ağac	-10.6399
əcəyi	-10.6399
▁şərtləri	-10.6401
▁qiymətləndiril	-10.6402
▁qərib	-10.6406
▁İbrahim	-10.6406
▁belin	-10.6408
▁qərarlar	-10.6409
▁şou	-10.6412
▁birləşmələri	-10.6416
▁paytaxt	-10.6417
▁xərcləri	-10.6418
▁Le	-10.6419
▁edilməsini	-10.642
▁qarşılaşma	-10.642
▁muxtar	-10.6423
▁təz	-10.6424
▁qanı	-10.6426
▁Apel	-10.6428
llah	-10.6428
▁getmir	-10.6435
▁olunmasını	-10.6437
▁xatırladır	-10.6438
▁qatı	-10.6438
▁2014	-10.6439
▁yerləşdir	-10.6441
ılaraq	-10.6443
▁qoş	-10.6449
▁ailəsin	-10.6449
▁əsərlər	-10.645
▁qolları	-10.645
▁limanı	-10.6451
▁gərgin	-10.6453
▁səyləri	-10.6458
▁Prokuror	-10.6462
çıları	-10.6462
▁72	-10.6463
▁2012	-10.6466
▁Şərh	-10.6467
▁yerlərini	-10.6469
▁fasilə	-10.6473
:04	-10.6474
▁suda	-10.6475
▁termin	-10.648
kat	-10.6481
üdl	-10.6483
▁NO	-10.6485
eb	-10.6486
▁simvol	-10.6486
▁prospekti	-10.6487
ayrağı	-10.6487
ədək	-10.6488
▁işlənmiş	-10.6488
sü	-10.6491
▁Cən	-10.6495
▁01	-10.6497
təşkəs	-10.6498
▁xırda	-10.6499
▁Avto	-10.65
▁Agentlik	-10.65
▁Hacıqabul	-10.65
▁Müsavat	-10.65
▁Qeydiyyat	-10.65
▁Sabirabad	-10.65
▁ixtisar	-10.65
▁moskva	-10.65
▁qoşulub	-10.65
▁uzadıl	-10.65
Belçika	-10.65
Google	-10.65
Hizbullah	-10.65
iPhone	-10.65
▁Brüssel	-10.65
▁Füzuli	-10.65
▁Moderator	-10.65
▁Monitorinq	-10.65
▁Nəzarət	-10.65
▁Qobustan	-10.65
▁Siyavuş	-10.65
▁Taekvondo	-10.65
▁Tikinti	-10.65
▁Travel	-10.65
▁Usubov	-10.65
▁axirət	-10.65
▁cavablandırıb	-10.65
▁darmadağın	-10.65
▁fürsət	-10.65
▁ibrahim	-10.65
▁inteqra	-10.65
▁naxçıvan	-10.65
▁neqativ	-10.65
▁oxuyub	-10.65
▁Çexiya	-10.65
▁çatışmazlığı	-10.65
▁Əbülfə	-10.65
▁anılıb	-10.65
▁Okean	-10.65
▁Oğuz	-10.65
▁Vəzir	-10.65
▁pəncərə	-10.65
▁Aşağı	-10.65
▁MTN	-10.65
▁Obama	-10.65
▁stend	-10.65
▁çıxarılan	-10.65
▁Şeir	-10.65
▁yoxsul	-10.65
▁Camaat	-10.65
▁Həcc	-10.65
▁Katib	-10.65
▁Sahil	-10.65
▁dizayn	-10.65
▁qoç	-10.65
▁Saziş	-10.65
▁Nazarbayev	-10.65
▁səyyar	-10.65
Çelsi	-10.65
▁BakuPost	-10.65
▁Cəlilabad	-10.65
▁Qısa	-10.65
▁məhbus	-10.65
▁igid	-10.65
▁şəkər	-10.65
▁çevrildi	-10.65
▁Əkbər	-10.65
▁məmləkət	-10.65
▁götürülüb	-10.65
▁qətliam	-10.65
▁Kərəm	-10.65
▁Çətin	-10.65
▁Səyya	-10.65
▁fikrə	-10.65
▁Pərviz	-10.65
▁Viza	-10.65
▁aşığı	-10.65
urtuluş	-10.65
▁Mobil	-10.65
▁Əlavə	-10.65
▁götürüb	-10.65
▁Times	-10.6501
▁zəb	-10.6501
▁funt	-10.6501
zzət	-10.6501
▁14:00	-10.6501
▁Qorqud	-10.6501
▁Oron	-10.6501
▁görüb	-10.6501
▁görünür	-10.6501
▁göndərilib	-10.6501
▁turşusu	-10.6501
▁ləkə	-10.6501
▁Mustafayev	-10.6501
▁istərdim	-10.6501
▁qondar	-10.6501
▁ayrılmış	-10.6501
▁yetirilir	-10.6501
albuki	-10.6502
▁Gələcək	-10.6502
▁təsdiqləyib	-10.6502
▁Marketinq	-10.6502
▁susur	-10.6502
▁tərif	-10.6502
▁aparatı	-10.6502
▁Hamilə	-10.6502
▁Maşın	-10.6502
▁Rzayev	-10.6502
▁müqəddəs	-10.6502
lpaq	-10.6502
▁Şəkillər	-10.6502
▁qalıqları	-10.6503
▁sü	-10.6503
▁tikilmiş	-10.6503
▁Arif	-10.6503
▁verməyin	-10.6503
▁səsvermə	-10.6503
▁yeyib	-10.6503
▁olunmur	-10.6503
▁ikən	-10.6504
▁Qabaq	-10.6504
▁çıxacaq	-10.6504
▁həssas	-10.6504
▁ekran	-10.6505
▁İsayev	-10.6505
▁qaranlıq	-10.6505
ənirə	-10.6506
▁Mədəni	-10.6506
▁ayrılmaz	-10.6506
▁tatar	-10.6506
▁qaba	-10.6507
▁Zaman	-10.6507
▁Musayev	-10.6507
▁etdirəcək	-10.6507
▁Los	-10.6508
▁təmsilçiləri	-10.6508
▁15:30	-10.6508
Sadəcə	-10.6508
▁Hüseynzadə	-10.6508
▁üsulu	-10.6509
▁filmlər	-10.6509
▁Ərazi	-10.6509
▁Yardımlı	-10.6509
▁çıxarıb	-10.651
▁XX	-10.651
▁qalmışam	-10.6511
▁eləyir	-10.6511
▁Anti	-10.6511
▁effekt	-10.6511
▁gəzən	-10.6512
▁mehriban	-10.6512
▁tikə	-10.6512
▁danışma	-10.6512
▁Əvvəlcə	-10.6512
pək	-10.6512
▁Məsləhət	-10.6513
▁Xorvatiya	-10.6513
▁intellekt	-10.6513
▁Prosineçki	-10.6513
▁sahillərində	-10.6513
▁Ruhani	-10.6513
▁şeyləri	-10.6514
▁Tağıyev	-10.6515
▁bilməzsən	-10.6515
▁resepti	-10.6516
:43	-10.6516
▁faydalı	-10.6516
▁Kimsə	-10.6517
▁etmirəm	-10.6518
:07	-10.6518
cağın	-10.6521
▁qazana	-10.6522
eyran	-10.6525
▁aylarında	-10.6526
▁işlənmişdir	-10.6526
▁Azim	-10.6526
▁saf	-10.6527
▁dostu	-10.6529
▁duy	-10.6529
▁bağladı	-10.653
▁nöqtəsi	-10.653
▁Hesab	-10.6531
▁Top	-10.6533
▁sevdiyi	-10.6533
▁oturan	-10.6533
▁Bilirsiniz	-10.6535
▁Braziliya	-10.6535
▁Məhəbbət	-10.6535
▁riyaziyyat	-10.6535
▁yürüş	-10.6535
▁Tanrı	-10.6535
▁səməd	-10.6535
▁halal	-10.6535
▁Assambleyasının	-10.6536
▁hərflər	-10.6537
▁Evin	-10.6537
▁istəyirik	-10.6538
likləri	-10.6538
▁Çünki	-10.6538
▁məhsuldarlığı	-10.6538
▁sürətl	-10.6539
▁Balaca	-10.6539
▁Sənət	-10.654
▁yanaş	-10.654
▁Məmmədli	-10.6542
▁işləmək	-10.6543
▁Qazan	-10.6544
▁seçmək	-10.6544
▁gəlməyə	-10.6547
▁nəvəsi	-10.6548
missiya	-10.655
▁Xidmətin	-10.6551
▁amerikalı	-10.6551
imyəvi	-10.6551
▁qoymuş	-10.6554
:49	-10.6556
▁nisbi	-10.6556
▁OPEC	-10.6557
▁Qaradağ	-10.6557
▁Yanğın	-10.6557
dərə	-10.6557
▁DİM	-10.6558
▁Parlament	-10.6558
▁Viki	-10.6558
▁57	-10.6558
▁kənarında	-10.6559
▁deyirəm	-10.656
▁04	-10.656
▁tamaşaçılar	-10.6561
▁bölməsi	-10.6562
...»	-10.6563
▁Yuxarıda	-10.6564
▁dillər	-10.6568
▁qaçdı	-10.6572
laşdırma	-10.6573
▁Beləcə	-10.6577
▁yerləşdirilmiş	-10.6577
▁festivalı	-10.6578
▁diz	-10.6578
▁seyid	-10.658
▁Formula	-10.658
▁İbrahimov	-10.6581
▁Süleyman	-10.6581
ydı	-10.6582
▁qəb	-10.6587
▁Sarı	-10.6591
▁narahatlıq	-10.6591
▁cüt	-10.6594
▁oğlanı	-10.6595
nmış	-10.66
omi	-10.66
▁Əfl	-10.6601
▁layihəsini	-10.6604
gird	-10.6604
▁təşkilatlarının	-10.6606
▁haqlı	-10.6608
▁bilirsiniz	-10.6609
▁məhsulun	-10.6609
▁haldır	-10.661
məliyik	-10.661
▁maddələr	-10.6611
▁Göy	-10.6612
▁səslər	-10.6613
:19	-10.6616
atın	-10.6617
▁Kir	-10.662
▁gəlirləri	-10.6623
▁şeyx	-10.6624
▁deyilsən	-10.6625
:56	-10.6626
▁adlandırıl	-10.6628
▁70-	-10.6631
▁övladı	-10.6632
▁yarışlar	-10.6635
▁Rusiyanı	-10.6635
ck	-10.6636
▁otaqlı	-10.6637
▁yayın	-10.6643
▁kimidir	-10.6644
mişlər	-10.6652
▁Arxa	-10.6653
▁qıza	-10.6654
▁həllin	-10.6654
▁işlənir	-10.6658
▁xərclər	-10.6658
▁birliyi	-10.666
bud	-10.6661
qır	-10.6666
▁com	-10.6667
ehli	-10.6668
off	-10.6668
▁Rəbbin	-10.6669
▁ittifaqı	-10.667
▁dövrlərdə	-10.6671
▁xadimləri	-10.6672
▁gə	-10.6676
▁qorxusu	-10.6677
▁olmasıdır	-10.6681
▁Təlim	-10.6686
▁oynaya	-10.6687
▁Bankın	-10.6687
▁binasında	-10.6689
▁cərəyan	-10.6691
▁apardığı	-10.6693
▁sala	-10.6694
Bakıda	-10.6694
▁valideynləri	-10.6696
mamalıdır	-10.6699
▁keçiriblər	-10.6699
▁qədimdir	-10.6699
▁heyvanların	-10.6704
▁Evdə	-10.6704
▁Rüstəmov	-10.6705
ja	-10.6706
▁bacı	-10.6708
▁zəmin	-10.6708
▁cana	-10.6708
▁and	-10.6709
16	-10.6712
▁İrəvana	-10.6714
ert	-10.6718
▁parad	-10.6722
▁Yad	-10.6723
▁ja	-10.6725
▁qarşıya	-10.6726
▁canım	-10.6726
əksini	-10.6727
▁girov	-10.6727
▁təyinatı	-10.6734
▁klubunda	-10.6738
▁mütəxəssisi	-10.6746
▁tozu	-10.6746
▁Gəli	-10.6747
atun	-10.6747
▁istilik	-10.675
Orda	-10.675
▁prosesində	-10.6752
arsa	-10.6755
bər	-10.6755
0)	-10.6755
▁çalışdı	-10.6757
▁siniflər	-10.6758
▁arxivi	-10.6764
▁izlə	-10.6767
▁VII	-10.6772
▁kəndlərdə	-10.6773
▁ayaqları	-10.6777
3-	-10.6785
:16	-10.679
▁nəfəs	-10.679
▁oy	-10.6792
▁qaydası	-10.6801
▁Rey	-10.6803
▁dostlar	-10.6806
▁komissiya	-10.6806
▁gəldikdə	-10.6809
12	-10.681
▁Gö	-10.681
▁Cəbhə	-10.6813
▁şəraitində	-10.6813
:59	-10.6825
▁qayıtma	-10.6825
▁özündə	-10.6827
▁etdirə	-10.6839
▁Yaz	-10.684
▁yazdı	-10.6842
▁bəyanatı	-10.6842
▁məsələdir	-10.6843
▁gələnlər	-10.6852
toru	-10.6855
▁Hüseynovu	-10.6857
▁Əs	-10.6864
▁karyerasın	-10.6865
ərə	-10.6865
▁məhkəməsi	-10.6872
▁salan	-10.6872
eli	-10.6873
▁Barselona	-10.6882
▁liderliyi	-10.6886
▁aça	-10.6889
▁təhlükəsi	-10.6898
▁29-	-10.69
▁mədəniyyətini	-10.6903
▁Hacıyeva	-10.6903
▁etdiyim	-10.6905
▁Evi	-10.6913
▁İdarəsində	-10.6914
▁qazanır	-10.6915
▁edərdi	-10.6916
▁baxışları	-10.6918
▁müəssisələrində	-10.6918
▁gözləmə	-10.6918
▁Bay	-10.692
▁zabit	-10.6923
urdu	-10.6926
▁həsrət	-10.6926
▁şagirdi	-10.6931
▁cəhətlər	-10.6932
olu	-10.6934
▁evləri	-10.6937
▁imtahanında	-10.6937
▁yas	-10.6938
▁Teatr	-10.694
▁sərnişinlər	-10.6942
ulla	-10.6943
▁dostum	-10.6945
▁vəsaitin	-10.695
▁vətəndaşlar	-10.6953
▁toplantısı	-10.6954
▁hədis	-10.6955
▁yaxınlaş	-10.6955
▁yandır	-10.6958
35	-10.696
▁məntəqəsin	-10.6966
▁ucal	-10.6968
▁reklam	-10.6973
arası	-10.6977
▁gününü	-10.6983
▁kəndləri	-10.7008
tən	-10.701
▁müəssisələr	-10.7014
aktiki	-10.7016
▁zamanlarda	-10.7018
▁arta	-10.7019
▁soyu	-10.702
▁Avropalı	-10.7021
▁terrorçular	-10.7021
▁ordunu	-10.7025
kon	-10.7026
▁fil	-10.7031
▁yerlərində	-10.7031
▁oxuya	-10.7039
24	-10.7039
fan	-10.7045
▁News	-10.7063
▁ödəmə	-10.7065
84	-10.7066
▁rəhbərinin	-10.7076
▁daşa	-10.7076
▁verildiyi	-10.7079
▁yazılı	-10.708
▁satıl	-10.7085
▁zamanlar	-10.7086
▁məzmun	-10.7091
▁para	-10.7093
▁Yolu	-10.7094
▁Aran	-10.7102
▁desə	-10.7107
▁doldur	-10.7114
▁qanunvericilik	-10.7115
▁tərkibi	-10.7119
▁təqdimat	-10.712
▁göstərici	-10.7125
ətini	-10.7126
▁qəhrəmanı	-10.7132
▁sarsı	-10.7136
▁adamları	-10.7137
▁müştərilərin	-10.7138
lənən	-10.7146
sri	-10.7146
▁ustad	-10.7146
▁qiymətini	-10.7157
▁nəz	-10.7158
üncü	-10.7163
▁yiyələn	-10.7169
▁dayı	-10.7173
▁işində	-10.7173
▁mahiyyətin	-10.7174
▁üstündə	-10.7177
▁hakimiyyətin	-10.7178
ass	-10.7181
sif	-10.7182
▁yataq	-10.7183
▁anasını	-10.7186
▁boğaz	-10.7187
saq	-10.7189
▁turnir	-10.719
▁bağla	-10.72
▁alar	-10.72
▁Sabi	-10.72
▁tiki	-10.7202
▁faydası	-10.7204
▁səbəbləri	-10.7204
▁mu	-10.7205
▁180	-10.7205
▁Ol	-10.7206
▁Yara	-10.7207
sıdır	-10.7212
▁element	-10.7217
▁qulluqçu	-10.7221
▁hərbçiləri	-10.7225
▁fikrini	-10.7226
kiyə	-10.7227
▁donu	-10.7229
▁üsul	-10.7231
vu	-10.7241
▁Saat	-10.7246
▁Səs	-10.725
:39	-10.7258
▁silsiləsi	-10.7261
▁çəkin	-10.7261
▁əla	-10.7267
▁52	-10.7267
▁Məcəlləsi	-10.7269
▁bəziləri	-10.7285
▁ittihamları	-10.729
▁zabitlər	-10.7292
▁səylər	-10.7293
▁yurd	-10.7299
▁deyəndə	-10.7304
▁stansiyası	-10.7304
imizdə	-10.7306
ersiya	-10.731
▁kəndlərini	-10.7313
▁həkimi	-10.7318
▁qəbir	-10.7319
▁Aslan	-10.732
▁namizədi	-10.7321
üç	-10.7323
▁kreditlərin	-10.7323
▁məclisi	-10.7325
▁turizmin	-10.7337
▁Hindistan	-10.7339
▁öl	-10.7341
▁mağazası	-10.7346
▁yem	-10.7347
▁mövsümü	-10.7353
▁Dərin	-10.7354
▁balans	-10.7356
▁Akademiyası	-10.7357
eləcə	-10.7358
▁xüsus	-10.7359
▁qon	-10.7368
▁keçdiyi	-10.7369
məkdaşlıq	-10.7373
▁texnologiyalar	-10.7384
nonim	-10.7385
▁valideynlər	-10.7387
nizsə	-10.739
▁Əmlak	-10.7391
▁yığı	-10.7396
▁işləyən	-10.7402
▁paltar	-10.741
▁Roman	-10.7412
▁Dubayda	-10.7417
▁qazıntı	-10.7419
▁bilməyən	-10.7419
▁Xəstə	-10.7419
▁arxada	-10.7422
▁təbiətin	-10.7425
4)	-10.7426
giya	-10.7428
▁azalma	-10.7432
▁boynun	-10.7433
▁ağzını	-10.7436
▁yardımı	-10.7437
▁sinfi	-10.7446
▁asır	-10.745
▁göl	-10.7455
▁Səfəvi	-10.7457
▁arxiv	-10.746
▁məzarı	-10.7467
▁malları	-10.7469
▁zirvə	-10.747
▁qərargah	-10.747
▁həbsxana	-10.7471
▁mühafizəsi	-10.7475
▁van	-10.7475
▁VI	-10.7476
▁Şər	-10.7491
2017	-10.7496
▁uc	-10.7497
▁İçəri	-10.7503
▁məkanı	-10.7503
▁Nar	-10.7507
▁şura	-10.7507
▁fəhlə	-10.7509
▁islahatların	-10.7511
▁hədiyyələr	-10.7512
▁nəticələrini	-10.7515
▁durdu	-10.7517
▁uç	-10.7531
▁formalaşdır	-10.7535
▁Opera	-10.7535
▁xanı	-10.7535
▁alman	-10.7541
▁çıxmışdı	-10.7546
J	-10.7559
mərtəbəli	-10.7559
Roma	-10.7559
▁ölkəmiz	-10.756
▁mitinq	-10.756
▁durma	-10.756
▁obyekti	-10.7561
▁xalqların	-10.7562
▁məsuliyyəti	-10.7563
▁Bəziləri	-10.7567
Sabah	-10.7567
Həsənov	-10.7568
Təhsil	-10.7568
▁etmədi	-10.757
▁redaksiya	-10.757
Milli	-10.757
▁53	-10.7571
bank	-10.7571
▁Qoy	-10.7572
▁yeyə	-10.7574
dığımız	-10.7581
▁Axı	-10.7588
çe	-10.7592
tmək	-10.7596
▁qaçqınlar	-10.7598
AŞA	-10.7601
▁müəllimləri	-10.7601
▁yoldaşını	-10.7605
▁Müsəlman	-10.7611
▁rəssamı	-10.7612
▁xanlığı	-10.7613
▁maraqlandır	-10.7613
▁oxşa	-10.7616
26	-10.7617
▁Üz	-10.7623
▁diplomat	-10.7626
▁sank	-10.763
▁həllini	-10.7631
▁Stadion	-10.7633
▁halın	-10.7635
▁nüfuzu	-10.7635
▁müddətin	-10.7636
▁özüm	-10.7639
▁yollar	-10.7641
▁məsləhətləşmə	-10.7645
▁kreditlər	-10.7647
▁Rəhim	-10.7648
▁naz	-10.7649
▁məskunlaş	-10.7649
▁xatir	-10.765
▁məktubun	-10.7653
▁sayıla	-10.7654
▁tanıma	-10.7657
▁məqsədləri	-10.7657
▁ağzı	-10.766
▁tayfası	-10.7666
▁barışma	-10.7669
▁yerləşdi	-10.7671
▁vəzir	-10.7672
OS	-10.7673
▁(7	-10.7677
▁Yuxarı	-10.7678
▁önəm	-10.7679
▁təmizlən	-10.7681
▁pro	-10.7685
lması	-10.7686
▁Faktla	-10.7688
▁insanları	-10.7697
▁vicdan	-10.7704
▁kal	-10.771
▁törədil	-10.7711
Lİ	-10.7712
▁iyi	-10.7714
▁bo	-10.7715
qəsd	-10.7717
▁mətbuatın	-10.7719
▁Makedoniya	-10.7722
▁toyu	-10.7723
▁mübarizəsi	-10.7723
▁çıxışları	-10.7725
▁formalaş	-10.7726
▁Söz	-10.7727
▁yazmışdı	-10.7727
▁Sənə	-10.7727
▁olmamışdı	-10.7729
▁psixo	-10.7731
▁Cabbar	-10.7731
fət	-10.7732
▁Osman	-10.7732
▁işim	-10.7736
▁Ulduz	-10.7738
▁Zeynalov	-10.7738
▁zil	-10.774
▁təxmin	-10.774
▁Tox	-10.7742
əlkə	-10.7743
▁şəh	-10.7743
▁Bəhr	-10.7743
▁razılaşdı	-10.7746
▁qadını	-10.7747
▁Radio	-10.7748
▁qorunu	-10.7748
▁Ayrı	-10.7749
sirli	-10.775
▁ədalət	-10.775
▁Biləsuvar	-10.775
▁Bəstəkar	-10.775
▁Hücum	-10.775
▁Kollektiv	-10.775
▁Konqres	-10.775
▁Qəzza	-10.775
▁Samux	-10.775
▁mahmud	-10.775
▁məcburiyyətində	-10.775
▁səhhəti	-10.775
▁ukraynalı	-10.775
▁zorakılıq	-10.775
▁Əməliyyat	-10.775
SABAH	-10.775
indows	-10.775
▁Amaşov	-10.775
▁Bəyanat	-10.775
▁Cenevrə	-10.775
▁Lavrov	-10.775
▁Mikayıl	-10.775
▁Ombudsman	-10.775
▁PROQNOZ	-10.775
▁Sarkisyan	-10.775
▁Vilayət	-10.775
▁biabırçı	-10.775
▁ixtiyarı	-10.775
▁müdaxilə	-10.775
▁mükəmməl	-10.775
▁mülayim	-10.775
▁tərəqqi	-10.775
▁vitamin	-10.775
▁zenit	-10.775
▁öyrət	-10.775
▁İnşaat	-10.775
▁şantaj	-10.775
▁General	-10.775
▁PKK	-10.775
▁mətləb	-10.775
▁qurulub	-10.775
▁təqva	-10.775
▁veteran	-10.775
▁birləşdirən	-10.775
▁olmayaraq	-10.775
▁təqib	-10.775
▁yeniyetmə	-10.775
▁Şagirdlər	-10.775
▁Əvəz	-10.775
▁Giriş	-10.775
▁yetər	-10.775
▁dissertant	-10.775
▁avq	-10.775
▁muğan	-10.775
PSJ	-10.775
▁12:20	-10.775
▁Bəxtiyar	-10.775
▁meteo	-10.775
▁Sevinc	-10.775
▁Rövşən	-10.775
▁YAP	-10.775
▁Məcbur	-10.775
▁Qorxu	-10.775
▁Uzaq	-10.775
▁hiylə	-10.775
Tech	-10.775
▁tikiləcək	-10.775
▁hicr	-10.775
▁ertəsi	-10.775
▁bitirdik	-10.775
▁xəyanət	-10.775
▁universal	-10.775
▁fəsil	-10.775
▁Müşfiq	-10.775
▁Xalça	-10.7751
▁yalvar	-10.7751
▁oturmuşdu	-10.7751
▁ayrılır	-10.7751
▁səbr	-10.7751
▁sədaları	-10.7751
▁legioner	-10.7751
▁əngəl	-10.7751
ington	-10.7751
▁fəxriyyə	-10.7751
▁ehtiram	-10.7751
Oskar	-10.7751
▁dodaq	-10.7751
▁saxlanılan	-10.7751
▁kafe	-10.7751
▁köhnə	-10.7751
▁həval	-10.7751
▁Hacıbəyli	-10.7751
▁behişt	-10.7751
▁öyrəd	-10.7751
▁çıxarılır	-10.7751
▁hücumçusu	-10.7751
▁lirik	-10.7752
▁uzunmüddət	-10.7752
▁Bəşər	-10.7752
▁Dəvəçi	-10.7752
▁növbəsində	-10.7752
▁düşəcək	-10.7752
▁demokratik	-10.7752
▁sirk	-10.7752
▁18:00	-10.7752
▁aidiyyəti	-10.7752
▁tanıdı	-10.7752
▁yastı	-10.7752
▁tender	-10.7752
▁qəsəbəsi	-10.7752
▁Hidro	-10.7752
▁Yeddi	-10.7752
▁qoruyub	-10.7753
▁qalxır	-10.7753
▁yandırıb	-10.7753
▁Veb	-10.7753
▁Sahə	-10.7753
▁edilmir	-10.7753
▁ayırıb	-10.7754
▁güman	-10.7754
▁İlahiyyat	-10.7754
▁radələri	-10.7754
▁olublar	-10.7754
▁savadlı	-10.7754
▁bitirib	-10.7755
▁çimərlik	-10.7756
▁aşıb	-10.7756
▁evlər	-10.7756
▁Yəhudi	-10.7757
▁hesablanması	-10.7757
▁qoymaq	-10.7757
▁gələrək	-10.7757
▁düşünürəm	-10.7758
▁Coğrafiya	-10.7758
▁Berlin	-10.7758
▁heyran	-10.7758
▁fotolar	-10.7758
▁qəbri	-10.7759
▁Peyğəmbərimiz	-10.7759
IR	-10.7759
▁hasan	-10.7759
▁ocağı	-10.7759
▁uğursuz	-10.7759
▁43	-10.776
▁kub	-10.7761
▁qram	-10.7761
▁Fəda	-10.7762
▁uzat	-10.7762
▁Əliyar	-10.7762
▁artmaqdadır	-10.7762
▁məntiqi	-10.7763
▁tutulan	-10.7763
▁orqanizmi	-10.7763
▁Avstriya	-10.7764
▁Sadıqov	-10.7764
▁Muğam	-10.7764
▁mənfəət	-10.7765
▁etmişəm	-10.7765
▁misir	-10.7765
▁seyr	-10.7765
▁tələsi	-10.7765
▁hazırlamaq	-10.7765
▁Kino	-10.7766
▁Dostluq	-10.7768
mışlar	-10.7768
▁Deyəsən	-10.7768
▁Peşəkar	-10.7768
▁Kür	-10.7769
▁Digəri	-10.777
▁Ağcabədi	-10.777
▁Birgə	-10.7772
▁dəyərlərimiz	-10.7772
▁dahi	-10.7773
▁yetirən	-10.7774
▁tapmaq	-10.7775
▁professoru	-10.7775
▁satan	-10.7775
▁küçəsində	-10.7775
▁olmuşam	-10.7776
▁etsin	-10.7778
▁epi	-10.7778
▁separatçı	-10.7779
▁Sankt	-10.778
▁fasiləsində	-10.7781
▁Ələkbərov	-10.7781
▁şer	-10.7782
▁69	-10.7784
▁təndir	-10.7784
▁misra	-10.7784
▁böyükdür	-10.7784
▁ailəsində	-10.7787
▁tərəfdarı	-10.7788
▁Zaqatala	-10.779
▁PRESS	-10.779
▁gümüş	-10.779
▁deyəsən	-10.7794
▁Salam	-10.7794
▁təhər	-10.7794
▁dəvə	-10.7794
▁sığın	-10.7794
▁bağlayır	-10.7795
▁başlanıb	-10.7796
▁mütləqdir	-10.7804
▁etməyib	-10.7805
▁yayımlana	-10.7806
▁xəbərdar	-10.7808
▁yoldaş	-10.7808
▁səfirliyinə	-10.7809
▁Qax	-10.7809
▁törədilmiş	-10.7809
▁strategiyası	-10.7809
▁məqsədlə	-10.781
43	-10.7813
▁rusiyalı	-10.7814
▁istehsalat	-10.7814
▁etdirdi	-10.7814
▁sevil	-10.7815
▁miqyas	-10.7815
bur	-10.7818
▁işləyirdi	-10.7819
▁şəbəkə	-10.7822
yırdı	-10.7822
▁gəncləri	-10.7823
▁telekanalın	-10.7823
land	-10.7824
▁yazdığı	-10.7825
▁Sol	-10.7825
enter	-10.783
▁dağlıq	-10.7831
▁anlaşma	-10.7831
▁seçilmiş	-10.7831
▁cavabını	-10.7831
▁görüşündə	-10.7833
▁Tərəflər	-10.7833
▁süd	-10.7834
▁eləmək	-10.7836
▁Əməkda	-10.7836
▁qəti	-10.7836
▁dövlətimiz	-10.7839
▁qalacaq	-10.7839
▁Daim	-10.784
▁Ştatların	-10.784
tex	-10.7841
net	-10.7843
▁qoxu	-10.7857
▁maraqla	-10.7858
▁tat	-10.7859
▁zonasında	-10.786
▁tütün	-10.7862
▁təmizləmə	-10.7862
▁tədarük	-10.7867
▁Rəhimov	-10.7867
▁yaşaya	-10.7867
▁1994	-10.7868
▁ehtimalı	-10.7869
▁Dünyada	-10.787
▁müvəkkili	-10.7871
ılmışdı	-10.7871
▁narazılıq	-10.7872
▁ayırır	-10.7875
▁bilərmi	-10.7876
▁ge	-10.7878
▁komandaların	-10.7878
▁500-	-10.788
▁durub	-10.788
ullah	-10.7884
▁yarandığı	-10.7889
▁maraqlandırır	-10.789
▁Quş	-10.7891
▁görüşünü	-10.7891
▁sav	-10.7893
▁hesabla	-10.7895
▁qaçqın	-10.7904
▁yaralananlar	-10.7905
oviç	-10.7905
▁taxta	-10.7909
kif	-10.7911
▁2007	-10.7911
▁danışırdı	-10.7911
▁Pir	-10.7914
saç	-10.7923
övlud	-10.7927
▁Cavadov	-10.7931
▁yaşayırlar	-10.7931
▁05	-10.7932
▁Ac	-10.794
İH	-10.7941
▁sənan	-10.7941
▁bağlaya	-10.7943
▁sıxın	-10.7945
▁aya	-10.7947
▁sayını	-10.7947
▁Mad	-10.7947
▁bağlanır	-10.7947
▁həddin	-10.7949
▁edirsə	-10.7952
▁çevrilməsi	-10.7952
▁qalar	-10.7952
tim	-10.7957
▁planını	-10.7959
▁nəsr	-10.796
▁xar	-10.7961
▁sivi	-10.7961
▁keçdikdə	-10.7962
▁Qanununda	-10.7964
▁odun	-10.7964
▁Departamenti	-10.7966
Siz	-10.7967
▁bakıda	-10.7972
nızı	-10.7976
▁səhifələrində	-10.7977
OX	-10.7978
▁alırlar	-10.7979
▁obyekt	-10.7981
▁Dram	-10.7981
99	-10.7985
▁yazılar	-10.7985
▁gedəndə	-10.7987
çiliyi	-10.799
yacaq	-10.7993
▁Britaniyanın	-10.7994
▁məscidi	-10.7995
▁namaz	-10.7997
▁molekul	-10.7998
▁məqsədli	-10.7999
▁tənzimlənməsi	-10.7999
▁siyahısında	-10.8003
▁şurası	-10.8003
▁39	-10.8005
bəyi	-10.8006
nternet	-10.8014
şt	-10.8018
▁ictimaiyyətin	-10.8021
▁vilayətində	-10.8022
▁ləğvi	-10.8024
▁Bala	-10.8028
▁bilinə	-10.803
▁verin	-10.8034
▁namizədlər	-10.8034
▁yazar	-10.8034
▁gedirlər	-10.8036
▁Bəy	-10.8037
yon	-10.8041
▁31-	-10.8043
▁gətirmişdi	-10.8043
▁addımı	-10.8047
▁vasitəçi	-10.8047
▁ustadı	-10.805
▁açıla	-10.8052
▁Bakcell	-10.8053
▁Mövsüm	-10.8062
▁mərtəbəli	-10.8064
▁doğrudan	-10.8065
▁ne	-10.8065
▁aralı	-10.8073
:33	-10.8073
▁Bina	-10.8078
LARI	-10.8078
▁oğlana	-10.8079
▁boynunu	-10.809
ley	-10.8091
▁biləcəyini	-10.8092
▁təchiz	-10.8097
▁matçında	-10.8098
öy	-10.8103
Yarış	-10.8104
▁ideyaları	-10.8105
▁səf	-10.8105
▁efirin	-10.8108
qiymətləndirilir	-10.8119
▁edəndə	-10.8121
▁həcmində	-10.8122
ker	-10.8126
▁çoxluq	-10.8127
səm	-10.8127
▁çempion	-10.8132
▁sil	-10.8138
▁Laz	-10.8139
▁gələndə	-10.814
▁çəkməy	-10.8141
▁zənginləşdir	-10.8141
ANA	-10.8149
▁Heydərov	-10.8154
▁Ora	-10.8154
SU	-10.8155
ner	-10.8156
▁vəkilləri	-10.8158
▁böyü	-10.8163
▁marağı	-10.8164
▁imzalanmış	-10.8166
▁şəkillər	-10.8168
71	-10.8169
▁ərazilərdə	-10.8169
▁Əzizov	-10.817
ləşdirmək	-10.8175
▁Görün	-10.8181
gar	-10.8181
▁başlamışdı	-10.8187
▁sözün	-10.8189
▁qoyul	-10.8189
▁Oldu	-10.8192
▁məsələsini	-10.8192
▁mün	-10.8195
▁canı	-10.8202
▁sırasın	-10.8207
▁Kiyev	-10.8219
▁vurduğu	-10.8225
▁əyləş	-10.8225
▁duası	-10.8227
▁tənqidi	-10.8227
▁sirr	-10.8232
▁Alimlər	-10.8234
28	-10.8235
▁Car	-10.8236
ləşdiril	-10.8239
▁səadət	-10.8239
▁fond	-10.824
▁əsrlərdə	-10.8243
▁Bayramı	-10.8248
AK	-10.8251
▁Rəsulu	-10.826
▁anlayış	-10.826
▁nəyin	-10.8262
▁artmasın	-10.8263
▁ruslar	-10.8265
▁əməliyyatında	-10.8269
▁istehsalın	-10.8271
▁səviyyəsini	-10.8272
▁Hard	-10.8274
31	-10.8274
▁deyənlər	-10.8274
▁yazıçılar	-10.828
pan	-10.8281
▁tura	-10.8281
▁adamlara	-10.8281
▁Ne	-10.8287
uel	-10.829
▁Mahmudov	-10.8293
▁Sor	-10.8293
▁dedilər	-10.8296
rilmişdir	-10.8298
umuz	-10.8298
▁İstanbulda	-10.8298
▁miqdarı	-10.8299
▁məqamlar	-10.8304
▁yeməy	-10.8306
▁axını	-10.8307
▁anda	-10.8308
ON	-10.831
▁nümunələri	-10.8311
▁işlədiyi	-10.8312
▁daşınması	-10.8316
▁yal	-10.8319
▁sevmə	-10.8319
▁verilişin	-10.8323
▁filialın	-10.8324
▁qohumları	-10.8325
▁teatrın	-10.8335
▁dərəcəsində	-10.8336
▁qaldığı	-10.8339
▁Qüvvələr	-10.8344
▁görüntülər	-10.8346
ster	-10.8352
▁təhdidlər	-10.8354
▁qohum	-10.8354
qulu	-10.8357
▁yataqları	-10.836
▁şeylər	-10.8361
iyyəti	-10.8364
▁Quli	-10.8369
MS	-10.837
▁görün	-10.8373
▁yayılmış	-10.8375
▁motivləri	-10.8375
▁Abbasov	-10.8376
75	-10.8384
▁ixracın	-10.8384
lmır	-10.8384
▁ənənələrin	-10.8385
▁Gen	-10.8385
▁dəyəri	-10.8386
▁42	-10.8387
▁jurnal	-10.8387
ırıq	-10.8388
məklə	-10.8389
▁Jurnalistlər	-10.8396
▁evim	-10.8404
▁ixracı	-10.8408
▁terrorçuların	-10.8409
Gənc	-10.8409
▁davran	-10.8414
▁bizdə	-10.8416
haq	-10.8417
pol	-10.8417
▁kompüter	-10.8418
▁kişini	-10.8418
▁balansın	-10.842
▁Ölkəmiz	-10.8423
▁adaları	-10.8428
▁qırıl	-10.843
▁artırır	-10.8437
oze	-10.8438
▁romanı	-10.8453
▁kəsil	-10.8459
sinlər	-10.8462
▁tədrisi	-10.8466
▁prokuroru	-10.8467
▁dəstəyini	-10.8467
▁məhdudiyyət	-10.8471
yıq	-10.8471
76	-10.8472
▁qorunmasın	-10.8473
tasiya	-10.8476
▁təbriz	-10.848
ayiş	-10.848
▁sərin	-10.8481
97	-10.8483
▁limanın	-10.8484
:08	-10.8488
acaqlar	-10.8493
▁rəngi	-10.8498
▁08	-10.8499
şünas	-10.8502
▁Adını	-10.8503
▁önündə	-10.8507
▁Ek	-10.8511
▁qaldırdı	-10.8514
▁ac	-10.8523
▁layihəsində	-10.8524
▁xətt	-10.8526
məli	-10.8531
kommun	-10.8532
lise	-10.8534
▁hisslər	-10.8535
▁Zo	-10.8536
▁Həsənova	-10.8537
▁hala	-10.8544
▁masa	-10.8544
▁müraciəti	-10.8546
▁Hökumət	-10.8551
▁ucuzlaş	-10.8552
▁59	-10.8558
▁otağında	-10.8559
05	-10.8559
▁naxış	-10.8562
▁Bölməsi	-10.8565
▁haqqın	-10.857
▁Saytın	-10.8571
▁alınma	-10.8573
▁mülkiyyət	-10.8577
▁Mari	-10.8578
:32	-10.8579
▁illərin	-10.8582
ıram	-10.8582
▁Bol	-10.859
▁maraqlarını	-10.8592
▁həqiqətə	-10.8592
▁sulu	-10.8594
▁gətirə	-10.8594
▁yollan	-10.8597
▁kəndlərin	-10.8599
▁bölmə	-10.86
▁meyit	-10.8601
▁71	-10.8603
▁Fakt	-10.8608
▁fənni	-10.8613
▁törə	-10.8627
laşmış	-10.8637
▁Heyvan	-10.8637
yeva	-10.8639
lıqları	-10.8645
▁cinayətkar	-10.8648
▁Səmədov	-10.8649
maya	-10.8652
ZƏ	-10.8655
▁toxum	-10.8659
▁sayır	-10.8662
▁tapşırıq	-10.8662
▁İnternet	-10.8664
▁mediası	-10.8668
▁verdiyini	-10.8669
palı	-10.8673
▁alətləri	-10.8674
▁Kaliforniyada	-10.8675
▁sima	-10.8675
gahın	-10.868
itasiya	-10.868
▁seçkilər	-10.8692
▁dəyərləndir	-10.8693
▁Şahin	-10.87
▁1000	-10.8701
▁Növbə	-10.8702
▁xalqımız	-10.8704
▁bazarını	-10.8706
işib	-10.8713
maqdadır	-10.8721
▁funksiyasın	-10.8723
07	-10.8726
▁infrastruktur	-10.8728
▁Həftə	-10.8733
▁orqanlarında	-10.8735
▁təzyiqlər	-10.8744
▁hissədə	-10.8744
▁İttifaqın	-10.8744
rus	-10.8752
▁Mak	-10.8754
▁toqquşma	-10.8758
Mİ	-10.8758
▁imtahanları	-10.876
▁Kanada	-10.8762
▁varlığın	-10.8769
▁qanunların	-10.877
rilməsi	-10.877
▁kitabını	-10.8773
▁ocaq	-10.8773
▁şəhərləri	-10.8773
▁aləmdə	-10.878
▁York	-10.8784
▁Nazi	-10.8785
tma	-10.8787
▁tərbiyəsi	-10.8789
▁mütəxəssislər	-10.8792
▁Əsgərlər	-10.8795
orta	-10.8796
▁köçür	-10.8809
▁Məqalə	-10.8811
(19	-10.8817
▁göstəriş	-10.8817
▁turunda	-10.8819
▁məqamı	-10.8821
▁prokurorluğu	-10.8828
▁müştərilər	-10.8828
mer	-10.883
▁yanvarda	-10.8831
▁vəzifəsi	-10.8834
▁yaxşılaşdırıl	-10.8835
▁status	-10.8836
ural	-10.8845
ite	-10.8849
qızı	-10.885
▁orqanın	-10.8852
▁park	-10.8856
rəli	-10.8857
▁cəl	-10.8857
ola	-10.8859
▁redaktor	-10.887
▁yel	-10.887
03.	-10.8881
▁hüququnu	-10.8881
▁müalicəsi	-10.8882
usu	-10.8885
▁yatağı	-10.8887
▁Arvad	-10.8888
▁Yolda	-10.8888
▁uzaqlaş	-10.8893
▁Qrupun	-10.8896
▁güləş	-10.8898
▁cam	-10.8912
muşdur	-10.8913
UR	-10.8916
▁janr	-10.8918
▁markal	-10.8919
▁Bara	-10.8925
▁deputatları	-10.8932
▁ed	-10.8933
▁Dünyası	-10.8937
th	-10.8941
▁yıx	-10.8944
xanov	-10.8944
▁məscidin	-10.8947
▁sazişi	-10.8948
LL	-10.8954
▁axar	-10.8957
▁qul	-10.896
▁nailiyyətlərin	-10.8966
▁sarayın	-10.8967
UT	-10.8982
ulsuz	-10.8982
gül	-10.8984
Azercell	-10.8984
Kərim	-10.8989
▁Londonda	-10.8989
▁körp	-10.899
▁hay	-10.8992
Erməni	-10.8993
sultan	-10.8994
müddət	-10.8994
axtarış	-10.8995
YENİLƏNİB	-10.8997
Xocalı	-10.8997
Foto	-10.8997
Çox	-10.8997
İnsan	-10.8998
Prezident	-10.8999
izasiya	-10.9001
bazar	-10.9001
▁səl	-10.9002
▁məsəl	-10.9002
ft	-10.9003
▁güclən	-10.9003
▁mahnıları	-10.9004
TV	-10.9006
▁övlad	-10.9008
▁sanksiya	-10.9009
▁əsgərləri	-10.9012
▁qurd	-10.9014
▁kadrlar	-10.9019
▁şəhadətnamə	-10.9022
▁dəyişə	-10.9022
çü	-10.9022
▁Arx	-10.9024
İran	-10.9024
irəm	-10.9034
əllə	-10.9048
▁amilləri	-10.905
▁dəyişdiril	-10.9055
▁Tədri	-10.9061
▁toxu	-10.9065
oğlunu	-10.9066
▁tərə	-10.9068
▁Xəbərləri	-10.9069
▁qurultayı	-10.9072
▁Qəzet	-10.9083
mamış	-10.9088
▁rayonlarda	-10.9089
▁obyektlər	-10.9091
atışma	-10.9096
▁uğurları	-10.9096
▁sifəti	-10.9099
▁maddələrin	-10.9102
şah	-10.9102
anbarda	-10.9104
▁şəhərlərində	-10.9109
▁protokol	-10.9109
▁tələblər	-10.9109
▁qızılı	-10.9109
▁amerika	-10.9112
▁atasını	-10.9117
▁futbolu	-10.912
▁rəy	-10.9122
Pet	-10.9125
25	-10.9126
▁veri	-10.9126
▁quruculuğu	-10.9129
▁inam	-10.913
▁13-	-10.9133
fayllar	-10.9134
▁gəldik	-10.9134
▁səssiz	-10.9138
mamışdır	-10.9138
▁vəziyyətini	-10.9141
▁eşitdi	-10.9142
▁təb	-10.9142
▁birliyin	-10.9143
▁zərif	-10.9148
▁otuz	-10.915
▁kosm	-10.9152
▁direktorunu	-10.9154
▁harda	-10.9154
▁Ceyh	-10.9156
▁unut	-10.9156
▁əhvalat	-10.9157
▁kurslar	-10.9158
çinin	-10.9158
▁tutulmuşdu	-10.9159
NƏ	-10.9166
Avro	-10.9167
▁Cəmi	-10.9168
▁130	-10.9168
▁maarifləndiri	-10.9168
üyü	-10.9169
▁filosof	-10.9169
▁dinamik	-10.917
▁olursa	-10.9172
ilyon	-10.9173
ight	-10.9175
▁şəhərlərin	-10.9176
▁məsul	-10.9176
▁trans	-10.9176
imnastika	-10.9177
ərşənbə	-10.9178
▁mənsub	-10.9178
▁XƏBƏR	-10.9178
nlayn	-10.9178
▁YENİ	-10.9178
üclü	-10.9178
▁gördüyü	-10.9178
.10.2018	-10.9178
çüsü	-10.9178
▁Davos	-10.9178
▁kabinet	-10.9178
▁səciyyə	-10.9178
▁toxunul	-10.9178
▁yaradılmış	-10.9178
▁yenidənqurma	-10.9178
▁çeşid	-10.9178
Eurovision	-10.9178
Keşlə	-10.9178
aqafqaziya	-10.9178
idrometeorolo	-10.9178
▁Avroliqa	-10.9178
▁Goranboy	-10.9178
▁Group	-10.9178
▁Hüceyrə	-10.9178
▁Moruq	-10.9178
▁Nüvə	-10.9178
▁RESPUBLİKASI	-10.9178
▁Tacikistan	-10.9178
▁Xəlilov	-10.9178
▁artilleriya	-10.9178
▁baxılıb	-10.9178
▁dərbənd	-10.9178
▁faşist	-10.9178
▁külək	-10.9178
▁morten	-10.9178
▁qəzənfər	-10.9178
▁səlahiyyəti	-10.9178
▁sərxoş	-10.9178
▁yumşa	-10.9178
▁zarafat	-10.9178
▁öldürüb	-10.9178
▁İncəsənət	-10.9178
▁şüşə	-10.9178
▁Əlcəzair	-10.9178
▁Ətraf	-10.9178
Riçard	-10.9179
yönümlü	-10.9179
▁Finlandiya	-10.9179
▁Müşahidə	-10.9179
▁Türkmənistan	-10.9179
▁avtoritet	-10.9179
▁cənnət	-10.9179
▁dinləyici	-10.9179
▁fransız	-10.9179
▁müttəfiq	-10.9179
▁sammit	-10.9179
▁yaradılır	-10.9179
▁yığıncağı	-10.9179
▁çevriliş	-10.9179
▁Fişer	-10.9179
▁Model	-10.9179
▁dayandırıb	-10.9179
▁qəfil	-10.9179
▁Yerevan	-10.9179
▁konsepsiyası	-10.9179
▁Əlifba	-10.9179
▁çiskin	-10.9179
▁Nitq	-10.9179
▁Qırx	-10.9179
▁Talış	-10.9179
▁Xaçmaz	-10.9179
▁Frank	-10.9179
▁Sonuncu	-10.9179
▁kiloqram	-10.9179
▁(18)	-10.9179
▁Qohum	-10.9179
aşvili	-10.9179
▁itaət	-10.9179
▁İmişli	-10.9179
▁yaradılacaq	-10.9179
▁okean	-10.9179
sunuz	-10.9179
▁17:00	-10.9179
▁yarımfinal	-10.9179
▁çığır	-10.9179
▁populyar	-10.9179
▁15:00	-10.9179
▁Emos	-10.9179
▁Andre	-10.9179
▁Salyan	-10.9179
Fotolent	-10.9179
▁eşidildi	-10.9179
▁AZXEBER	-10.9179
▁bəşəriyyət	-10.9179
▁buynuz	-10.9179
▁Fətullayev	-10.9179
▁nahar	-10.9179
▁Ehtiyat	-10.9179
▁Xaç	-10.9179
▁Eşq	-10.9179
▁Aqil	-10.9179
▁Elvin	-10.9179
▁kainat	-10.9179
▁Ağız	-10.9179
▁rütbə	-10.9179
▁Dəfə	-10.9179
▁Gədəbəy	-10.9179
▁zahir	-10.9179
▁Xankəndi	-10.9179
ƏFƏ	-10.9179
▁premyera	-10.9179
▁oxşayır	-10.9179
▁işlədilir	-10.9179
▁görülür	-10.9179
▁doğulan	-10.9179
▁nizamlanması	-10.9179
▁mənsubiyyət	-10.9179
▁köçürülməsi	-10.9179
▁hasil	-10.9179
▁Ömər	-10.9179
▁günahlandır	-10.9179
▁moto	-10.9179
▁ehtiras	-10.9179
▁söndürülüb	-10.918
▁Karate	-10.918
▁Dəməşq	-10.918
▁kafir	-10.918
▁yetim	-10.918
▁siqaret	-10.918
▁İbad	-10.918
▁normativ	-10.918
▁genişləndirmək	-10.918
▁mütəşəkkil	-10.918
▁çağırılıb	-10.918
▁imic	-10.918
▁sürücüsü	-10.918
▁xiyabanında	-10.918
▁gətirilib	-10.918
▁bilməyəcəy	-10.918
▁Kamal	-10.918
▁pilləsin	-10.918
▁zövq	-10.918
▁amansız	-10.918
▁çıxarılacaq	-10.918
▁rüb	-10.918
▁kommunist	-10.918
▁Hind	-10.918
▁bahalaşıb	-10.918
▁olmasaydı	-10.918
▁dayandırılması	-10.918
▁Fərman	-10.9181
▁araşdırır	-10.9181
▁Əfqan	-10.9181
▁vuruş	-10.9181
▁Faktor	-10.9181
▁Nəsib	-10.9181
▁yaratmağ	-10.9181
▁qalxıb	-10.9181
▁Türkmən	-10.9181
▁dayanıb	-10.9181
▁qayıdıb	-10.9181
▁kimyəvi	-10.9182
▁11:00	-10.9182
▁çevirib	-10.9182
▁cadu	-10.9182
▁bağlayıb	-10.9182
▁arif	-10.9182
▁karvan	-10.9182
▁qoxusu	-10.9182
▁qalmayıb	-10.9182
▁Açıqlama	-10.9182
▁Dizayn	-10.9182
▁demişəm	-10.9182
▁sükan	-10.9182
▁toplayıb	-10.9183
spekt	-10.9183
təpə	-10.9183
▁imzalanması	-10.9183
▁maldar	-10.9183
▁cəlil	-10.9183
▁qılıncı	-10.9183
▁oyunçusu	-10.9184
▁Sənədlər	-10.9184
Palmali	-10.9184
▁Təyin	-10.9184
▁Ağzı	-10.9184
▁daşıyan	-10.9184
▁Fikr	-10.9184
▁boru	-10.9185
▁bolşevik	-10.9185
▁kont	-10.9185
▁Met	-10.9185
▁neylə	-10.9185
▁Zati	-10.9185
▁qarşılaşacaq	-10.9185
▁Məlik	-10.9186
▁quzu	-10.9186
▁Əksər	-10.9186
▁Demək	-10.9186
▁Problem	-10.9186
▁yaza	-10.9187
▁boyanmış	-10.9187
▁zən	-10.9187
▁həyətdə	-10.9187
▁10:30	-10.9187
sak	-10.9187
mental	-10.9188
▁əlilliyi	-10.9188
▁Nizamnamə	-10.9188
▁18:12	-10.9188
mekte	-10.9188
▁13:30	-10.9188
▁inanıram	-10.9188
▁tərlan	-10.9188
▁Pensiyalar	-10.9188
▁həzz	-10.9189
▁özünüzü	-10.9189
▁işləmir	-10.9189
▁qorxulu	-10.9189
▁açmaq	-10.919
▁keçmişdi	-10.919
▁memarlıq	-10.919
▁ağdam	-10.9191
▁oğluyam	-10.9192
▁göndərib	-10.9192
▁Qida	-10.9192
▁SON	-10.9192
vənd	-10.9192
▁oxuyurdu	-10.9193
▁eləyib	-10.9194
▁sağlamlıq	-10.9194
▁qarşılaşıb	-10.9195
▁eləyən	-10.9195
▁Məişət	-10.9195
▁Çavuşoğlu	-10.9195
▁Siyahı	-10.9195
▁Dağıstan	-10.9195
▁Dadaşov	-10.9195
▁Şükürov	-10.9196
▁Mənəvi	-10.9196
▁Super	-10.9196
▁maksimum	-10.9196
▁Rza	-10.9196
▁keçə	-10.9198
▁cüdoçu	-10.9198
▁oturmaq	-10.9198
▁içmək	-10.9198
lasa	-10.9198
▁Tay	-10.92
▁tikilib	-10.92
▁həlledici	-10.92
▁aparıblar	-10.9201
:09	-10.9201
▁edəcəyik	-10.9201
▁mir	-10.9202
▁Nənə	-10.9202
▁girən	-10.9202
▁Cey	-10.9202
▁milyarder	-10.9203
▁yekə	-10.9203
məs	-10.9203
▁qeyb	-10.9203
▁verməlidir	-10.9205
▁vasitədir	-10.9205
▁ayrılmaq	-10.9205
▁niyyətində	-10.9205
▁boşal	-10.9206
▁dağıstan	-10.9207
▁Cüm	-10.9208
▁Assambleyası	-10.9208
▁əzbər	-10.9209
▁kəsir	-10.9209
mırdı	-10.9212
▁itən	-10.9212
▁salınmışdır	-10.9215
▁dayandıra	-10.9215
▁eşidən	-10.9216
▁sevgisi	-10.9216
İL	-10.9216
▁Nami	-10.9217
▁Marq	-10.9217
▁götürmə	-10.9218
▁qalxan	-10.9218
açıq	-10.9219
▁qaytarılması	-10.9219
▁Tamaşaçı	-10.922
▁qurumun	-10.9221
▁Yalan	-10.9223
▁çevrilmişdir	-10.9223
▁qalmadı	-10.9223
▁olmamışdır	-10.9223
▁Qasımov	-10.9225
▁Exp	-10.9225
▁Norilskdə	-10.9226
▁Seyidov	-10.9226
▁çəkilmiş	-10.9227
▁energetika	-10.9228
▁çatmaq	-10.9228
▁istifadəçilər	-10.9229
▁məmulatları	-10.9231
kilsə	-10.9231
▁Qızın	-10.9232
▁haram	-10.9232
-09-201	-10.9233
▁Kompleksinin	-10.9234
▁bilməyəcək	-10.9236
həd	-10.9236
▁badə	-10.9237
▁Astana	-10.9238
▁bugün	-10.9238
▁bilirdilər	-10.9239
▁Saki	-10.9239
▁88	-10.924
▁Hadi	-10.9241
▁Cas	-10.9242
▁müasirlik	-10.9242
▁həmsədri	-10.9244
▁qoymuşdu	-10.9244
▁təcavüz	-10.9248
▁əsassız	-10.9248
▁səviyyədədir	-10.9249
tab	-10.925
▁ayrılıq	-10.925
▁Mütəxəssislər	-10.9251
▁Zərdab	-10.9255
▁modern	-10.9257
▁İşçilər	-10.9257
mağın	-10.9258
▁Geri	-10.9259
▁gəlinir	-10.9259
▁42-	-10.926
▁alırdı	-10.926
▁Qaç	-10.926
▁iştirakçılarına	-10.9261
▁tanışlıq	-10.9263
▁bası	-10.9263
▁Kolumbiya	-10.9266
▁razılığı	-10.9266
▁İman	-10.9267
▁danışıqların	-10.9267
▁həkimlər	-10.9271
▁oruc	-10.9275
Fi	-10.9276
▁düşərgəsi	-10.9278
▁Xanımlar	-10.9278
diyə	-10.9281
▁aparılmış	-10.9285
▁danışıqları	-10.9286
▁yaşayıb	-10.9293
▁xadimi	-10.9294
▁layiqdir	-10.9295
oloq	-10.9295
▁praktik	-10.9296
▁adında	-10.9298
▁artacaq	-10.9299
▁Nadir	-10.9303
▁klinika	-10.9305
▁fit	-10.9313
▁ortasında	-10.9313
iləcəyi	-10.9313
▁Moz	-10.9313
süz	-10.9314
▁ayıra	-10.9314
▁ünvanınız	-10.9319
▁rın	-10.9321
atdı	-10.9322
▁daşlar	-10.9323
▁sahibkar	-10.9323
▁Çində	-10.9325
▁uçotu	-10.9326
▁məbləğində	-10.9327
▁verənlər	-10.9327
▁getməli	-10.9327
vakant	-10.9328
▁ənənə	-10.9332
▁tip	-10.9332
▁oturur	-10.9336
qabı	-10.9337
▁Kor	-10.9338
uruldu	-10.9338
▁məclis	-10.934
▁qismət	-10.9342
▁şagirdlərin	-10.9354
▁əmiri	-10.9355
▁pre	-10.9355
▁odu	-10.9358
▁faizini	-10.9359
▁əsrlər	-10.9361
▁məktəblərinin	-10.9361
tmaq	-10.9365
▁çalışırlar	-10.9365
▁qəhrəmanlıq	-10.9366
▁yayım	-10.937
▁keçdilər	-10.9375
▁peyğəmbərin	-10.9376
▁Azercell	-10.9377
▁bilirlər	-10.938
▁öyrənməy	-10.938
?”	-10.9381
ƏH	-10.939
▁Xaricdə	-10.9394
▁yönəlmiş	-10.9397
▁gizlən	-10.9398
▁çalın	-10.9398
▁Silah	-10.9399
lənmə	-10.9399
▁Adi	-10.94
ond	-10.9401
müz	-10.9404
arın	-10.9411
ral	-10.9413
▁London	-10.9419
▁yıxıl	-10.9419
▁Con	-10.942
sional	-10.9421
▁İndiyə	-10.9423
▁keçin	-10.9428
▁keçirildiyi	-10.9431
rom	-10.9434
▁qiymətləndir	-10.9437
cəklər	-10.9445
▁vasitə	-10.9446
▁şərəfin	-10.945
▁qurumlar	-10.9451
▁otaqda	-10.9452
▁çağırırdı	-10.9453
▁fo	-10.9458
▁sərhədlərini	-10.9461
▁çatdıqda	-10.9462
▁Adna	-10.9462
▁aldılar	-10.9464
04	-10.9467
▁hamımız	-10.9468
▁0,	-10.9469
mirdi	-10.9471
▁torpağı	-10.9472
4-	-10.9475
▁anlamağ	-10.9479
▁75	-10.948
▁yatağında	-10.948
▁Misirdə	-10.9481
▁Qaydaları	-10.9482
Əl	-10.9484
▁matçını	-10.9485
▁şəklini	-10.9491
▁Makro	-10.9493
▁böhranı	-10.9496
▁fikrində	-10.9498
▁hesabatını	-10.9501
▁Manç	-10.9504
▁səfirliyində	-10.9506
▁49	-10.9507
▁RA	-10.9513
▁birləşməsi	-10.9513
▁zirvəsi	-10.9515
▁komandamız	-10.9518
sad	-10.9519
▁qapa	-10.9521
▁araz	-10.9521
▁öt	-10.9524
▁hissələrin	-10.9527
06-	-10.953
▁ağlayır	-10.9539
▁sinf	-10.9542
mov	-10.9543
▁Məhkəməsin	-10.9544
▁əsərlərində	-10.9545
▁sərhəddi	-10.955
luğunun	-10.9564
▁görünə	-10.9571
▁ərazilər	-10.9572
▁etməsin	-10.9579
▁oynadığı	-10.958
▁diaspor	-10.9584
▁uça	-10.9587
▁fizika	-10.9591
▁üzündə	-10.9593
▁tab	-10.9594
▁aktyorlar	-10.9596
▁qəs	-10.96
Azərsu	-10.9604
▁Muzeyi	-10.9609
▁həyatım	-10.9614
▁çəkinmə	-10.9615
tem	-10.9618
▁Kanadada	-10.9618
umar	-10.9619
▁tədqiqatçılar	-10.962
▁torpaqlarını	-10.9622
abi	-10.9623
▁siyasətinə	-10.963
▁yaradılmasını	-10.9632
▁mətbəx	-10.9633
▁şəhərlər	-10.9635
▁birinciliyi	-10.9636
▁salamlar	-10.9642
ologiyası	-10.9643
▁nümayəndəliyi	-10.9644
olma	-10.9648
▁yoldaşları	-10.9648
▁bankların	-10.965
▁infrastrukturu	-10.965
lığının	-10.965
▁komandanı	-10.9653
Yorkda	-10.9654
▁mas	-10.9657
▁başçılarını	-10.9664
▁Tehran	-10.9667
▁Ham	-10.9669
▁iclasının	-10.9671
▁Mil	-10.9672
▁müsəlmanları	-10.9672
▁yun	-10.9674
▁Hindistanda	-10.9674
▁mm	-10.9674
90	-10.9676
▁istəmirdi	-10.9678
▁Yarı	-10.968
▁atın	-10.9685
ven	-10.9686
▁şiddətl	-10.9688
ƏLİ	-10.9691
▁sürəti	-10.9693
▁balı	-10.9698
▁bəndə	-10.9699
div	-10.97
▁alması	-10.9707
▁şəbəkədə	-10.9709
▁müsabiqəsində	-10.9709
▁qurğuları	-10.9709
▁iy	-10.9712
yor	-10.9719
▁millətlər	-10.9721
▁Tim	-10.9722
▁balası	-10.9725
▁qovuşma	-10.9731
▁göstərməyi	-10.9731
▁ot	-10.9734
▁Əy	-10.9736
▁kurs	-10.9738
▁Rumıniya	-10.9739
▁təqaüd	-10.9743
▁gedişin	-10.9749
▁Ru	-10.9754
▁Konfransı	-10.9756
▁mənbələrində	-10.9756
▁gedişi	-10.9762
▁tərəfdaşları	-10.9762
▁ölkədir	-10.9762
omo	-10.9767
!”	-10.9772
▁üzvlüyün	-10.9786
▁ənənəsi	-10.9787
xor	-10.979
▁Polisi	-10.979
▁Faiz	-10.9792
▁qovuş	-10.9792
çalıb	-10.9793
iddi	-10.9797
ığı	-10.981
▁Metr	-10.9812
əhəng	-10.9816
▁açan	-10.9819
▁cins	-10.9827
▁axund	-10.9829
ig	-10.9829
▁valideyn	-10.983
▁banklarda	-10.9831
▁Bölmə	-10.9832
▁çarə	-10.9838
aqqa	-10.9843
▁məsafədə	-10.9843
▁təqvimi	-10.9848
▁Hökuməti	-10.9848
▁aktivləri	-10.985
▁quşlar	-10.9851
▁həcm	-10.9855
izmin	-10.9855
▁Sərgi	-10.9858
gilə	-10.9859
▁ruhu	-10.987
▁fon	-10.9874
latın	-10.988
killik	-10.9882
▁Yar	-10.9884
▁bankı	-10.9887
▁mahiyyət	-10.9887
▁1500	-10.989
▁dəyişdirilməsi	-10.9891
▁ellər	-10.9891
zit	-10.9894
▁ictimaiyyəti	-10.9906
İP	-10.9907
▁seçimi	-10.9908
▁Konstitusiyası	-10.9919
▁Mər	-10.992
▁Həbib	-10.992
▁başlanğıcı	-10.9921
▁etmələri	-10.9929
▁qazın	-10.9931
▁mərkəzdə	-10.9941
Əlizadə	-10.9957
▁küçə	-10.9958
▁Bədən	-10.996
▁məhdudiyyətlər	-10.9962
▁irs	-10.9962
uxa	-10.9965
▁Tol	-10.9967
▁Şan	-10.9967
▁Yur	-10.9973
09	-10.9976
▁ərazilərin	-10.9978
▁abidələr	-10.9982
▁sənətkarlar	-10.9987
▁zərərsizləşdir	-10.999
▁tələbat	-10.9992
▁başlanır	-10.9996
▁yerin	-10.9999
▁imzalandı	-11
▁çəkisi	-11.0001
▁etm	-11.0012
▁Ölkəmizdə	-11.0016
▁Yoldaş	-11.0017
▁xur	-11.0018
rici	-11.002
▁Əla	-11.0027
▁20.0	-11.0037
▁qaydalarını	-11.005
illər	-11.005
lərinizi	-11.0057
Na	-11.0063
▁şərəf	-11.0071
▁axın	-11.0072
▁aktlar	-11.0073
tom	-11.008
▁mahalın	-11.0083
▁cavablar	-11.0089
▁Acı	-11.0089
birindən	-11.0089
▁Beş	-11.009
▁şan	-11.009
▁Çer	-11.0092
yot	-11.0098
▁əlaqələrində	-11.0099
▁AZAL	-11.0102
▁azarkeşləri	-11.0102
erver	-11.0107
▁Ermənilərin	-11.011
▁yarışın	-11.0114
zal	-11.0119
▁tayfasını	-11.0122
▁qoya	-11.0124
▁kəndlərində	-11.0127
▁şərtlərini	-11.0134
▁toxundu	-11.0134
Pol	-11.0147
▁prosesini	-11.0149
▁dayanma	-11.015
US	-11.0151
rayon	-11.0155
▁etmirdi	-11.0158
▁hüquqlarını	-11.0158
▁Tbilisi	-11.0159
▁Qrup	-11.0161
ess	-11.0161
▁qəhrəmanları	-11.0164
▁bəzə	-11.0164
▁əsərində	-11.0165
▁Həqiqət	-11.0168
▁arvadını	-11.0171
▁vurğu	-11.0171
ep	-11.0172
▁qolun	-11.0173
Dİ	-11.0175
▁cəhət	-11.0177
▁Dəri	-11.0179
▁toplantı	-11.0182
▁Şəhidlər	-11.0183
▁cəsədi	-11.0187
▁həvəsi	-11.0187
▁dərsi	-11.0192
▁qoşma	-11.0194
▁şikayəti	-11.0195
▁qətiyyətl	-11.0197
▁qalxma	-11.0201
tv	-11.0205
▁oba	-11.0207
▁əsaslandır	-11.0207
▁tət	-11.0208
layırlar	-11.0225
▁Məclisdə	-11.0229
▁sahibkarlı	-11.023
▁Baki	-11.0231
▁belədir	-11.024
▁Çar	-11.0241
▁bilsə	-11.0242
▁avadanlıqların	-11.025
laşdırır	-11.0251
▁möhkəm	-11.0254
▁məktəbində	-11.026
▁117	-11.0268
▁Tia	-11.0272
▁itir	-11.0277
▁ailələri	-11.0279
▁dayan	-11.0286
▁binə	-11.0289
▁Ban	-11.0293
▁böyümə	-11.0294
▁yoxlamalar	-11.0297
▁Tehranda	-11.0297
ınızda	-11.0299
▁çəkmiş	-11.0302
sso	-11.0306
▁tərcümə	-11.0312
▁çıxanlar	-11.0314
go	-11.0315
▁həftəsi	-11.0317
▁tərzin	-11.0317
▁çıxmağı	-11.0319
▁soyun	-11.0322
▁quruluş	-11.0324
6)	-11.033
▁mətbəxdə	-11.0333
▁çaş	-11.0336
▁Əlində	-11.0343
for	-11.0346
▁hasilatı	-11.0347
▁manatı	-11.0347
▁qarnı	-11.0351
▁36	-11.0356
▁Festivalın	-11.0356
▁əlaqələrini	-11.0358
▁qalx	-11.0359
▁ucu	-11.0359
▁ağacları	-11.0361
▁ərizəsi	-11.0362
:58	-11.0366
▁axtarıl	-11.0366
▁Rek	-11.0371
▁addımları	-11.0374
▁mad	-11.0378
▁istəyin	-11.038
▁sərgidə	-11.0384
▁məqsədlər	-11.0384
▁diasporu	-11.0386
▁aşkarlan	-11.0389
▁val	-11.0392
ers	-11.0392
Narko	-11.0396
▁hakimin	-11.0398
▁silahlar	-11.0407
ER	-11.0408
Se	-11.0416
▁reaksiyalar	-11.0416
▁Məktub	-11.0419
rət	-11.0425
▁kimlik	-11.0426
▁katib	-11.0427
▁dəqiqədə	-11.0428
▁keçməsin	-11.0428
▁çağırışı	-11.0433
▁əməyi	-11.0444
▁Komissiya	-11.0444
oks	-11.0446
▁hərəkat	-11.045
▁Sistem	-11.045
▁münaqişələr	-11.0452
qlı	-11.0463
▁yollarında	-11.0466
laşmışdı	-11.0479
untu	-11.048
▁televiziya	-11.0487
▁İra	-11.0492
laşdırılmış	-11.0494
▁Nəcəf	-11.0497
▁çiyin	-11.0498
▁ucuz	-11.0502
▁Elmir	-11.0503
▁əməliyyatlar	-11.0506
▁blok	-11.0507
▁metodlar	-11.0508
▁imtahanlar	-11.051
▁institutun	-11.0513
▁saytlar	-11.0515
▁Arda	-11.0518
▁namazı	-11.0518
▁Yaşıl	-11.0519
▁tərkibin	-11.0521
ALI	-11.0521
▁olmağın	-11.0538
Məmmədov	-11.054
▁Vəkil	-11.0542
▁inqilabı	-11.0543
▁Təbrizi	-11.0546
▁problemin	-11.0549
▁bilmədiyi	-11.0549
▁nahiyə	-11.055
▁bayatı	-11.055
▁təklifləri	-11.055
▁Departamentin	-11.0558
▁ittihamlar	-11.0565
▁müdir	-11.0566
▁savaş	-11.0566
▁göstərdiyi	-11.0573
▁rejissor	-11.0575
▁görüntü	-11.0579
▁qurğu	-11.0585
üs	-11.059
YON	-11.0595
▁qaldırıl	-11.0601
nami	-11.0601
▁institutunu	-11.0607
▁abituriyent	-11.061
▁ço	-11.061
▁Təh	-11.0611
▁döyüşə	-11.0613
▁əməlləri	-11.0617
lacaq	-11.0617
▁Kazım	-11.0619
dində	-11.0621
▁Aş	-11.0622
▁Bər	-11.0622
▁sanksiyaları	-11.0628
▁adamdı	-11.0629
ulmuş	-11.0633
atıcı	-11.064
▁genişləndi	-11.0644
erç	-11.0644
ruhiyyə	-11.0645
Kəpəz	-11.0648
▁qurbanı	-11.0654
həssas	-11.0654
Tədqiqat	-11.0658
(192	-11.0659
Hörmət	-11.066
Araz	-11.0661
Həyat	-11.0661
Belarus	-11.0661
qərb	-11.0661
ümü	-11.0661
Azadlıq	-11.0661
nəqliyyat	-11.0662
SİYAHI	-11.0662
SOCAR	-11.0663
qərar	-11.0663
Sosial	-11.0663
yaxa	-11.0663
İlk	-11.0664
şəhər	-11.0664
iqtisadi	-11.0664
Gürcüstan	-11.0664
Daha	-11.0664
xidmət	-11.0664
teri	-11.0665
▁Məktəbin	-11.0666
AZN	-11.0668
▁tipl	-11.0669
▁məskun	-11.0669
▁buraxma	-11.067
▁kas	-11.0671
▁materialları	-11.0673
▁pol	-11.0673
təzə	-11.0674
300	-11.0677
NE	-11.0683
lıydı	-11.0684
▁firma	-11.0685
İndi	-11.069
▁Bələdiyyə	-11.0692
▁verilmə	-11.0698
▁silin	-11.0701
Həm	-11.0703
▁vilayətini	-11.0705
▁Səsin	-11.0708
▁müstəqilliyini	-11.0712
.04	-11.0713
▁miqrasiya	-11.0713
▁ödəniş	-11.0719
daxili	-11.0719
▁Adamları	-11.0722
▁əxlaq	-11.0725
alıb	-11.0726
▁nəqliyyatı	-11.0729
▁zo	-11.073
▁Paşayev	-11.073
saat	-11.0735
▁kompleks	-11.0737
▁qiymətləndirir	-11.0742
▁küç	-11.0742
▁müşavir	-11.0744
məmmədov	-11.0744
əcəyəm	-11.0757
▁baxan	-11.076
▁nisb	-11.0764
tul	-11.0772
▁meydanda	-11.0773
▁vura	-11.0778
▁kəməri	-11.0781
atika	-11.0783
-2015	-11.0785
▁geo	-11.0785
▁emal	-11.0785
▁mahir	-11.0788
▁zərb	-11.0789
▁Norilsk	-11.079
▁qolunu	-11.0791
▁təsdiqi	-11.0791
▁əhalini	-11.0792
▁Gör	-11.0792
Ra	-11.0798
▁gücü	-11.08
▁Sədri	-11.0801
▁çevir	-11.0802
▁opera	-11.0809
▁cümlə	-11.0809
▁Andro	-11.0813
▁İqtisad	-11.0814
▁Meydan	-11.0816
▁alınmış	-11.082
▁sit	-11.0823
▁çevrilmişdi	-11.0825
▁Xoca	-11.0825
▁götürdü	-11.0825
▁ixtisası	-11.0826
günə	-11.0832
▁yanır	-11.0835
Dünyada	-11.0836
▁Xey	-11.0836
omat	-11.0837
▁magistr	-11.0837
hədsiz	-11.0838
▁gimnastika	-11.0838
▁İsveç	-11.0839
▁Ruh	-11.084
NN	-11.084
▁inter	-11.0841
əqaüd	-11.0841
riminal	-11.0842
üqəddəs	-11.0842
övcud	-11.0842
üxtəlif	-11.0842
▁Seç	-11.0842
▁incəsənət	-11.0842
üşünürəm	-11.0843
▁sevinir	-11.0843
artlayış	-11.0844
▁qoruyucu	-11.0844
▁2009	-11.0844
▁intensiv	-11.0844
DU	-11.0844
▁zəmanə	-11.0845
Şaxtyor	-11.0845
▁Kərkük	-11.0845
▁yekdil	-11.0845
▁ünsiyyət	-11.0845
COM	-11.0845
Forbes	-11.0845
Fənərbağça	-11.0845
LUKOİL	-11.0845
Microsoft	-11.0845
Uruqvay	-11.0845
rijinal	-11.0845
▁Aparıcı	-11.0845
▁Dialoq	-11.0845
▁Express	-11.0845
▁HEY	-11.0845
▁IELTS	-11.0845
▁Milyard	-11.0845
▁Murakami	-11.0845
▁Novosti	-11.0845
▁QƏRAR	-11.0845
▁Rəssam	-11.0845
▁Sloveniya	-11.0845
▁Teqlər	-11.0845
▁Tillerson	-11.0845
▁Tolerantlı	-11.0845
▁Tətbiq	-11.0845
▁artırılıb	-11.0845
▁azaldılması	-11.0845
▁bakalavr	-11.0845
▁böyrək	-11.0845
▁bəhrələn	-11.0845
▁kosmetika	-11.0845
▁maarifləndirmə	-11.0845
▁monoqrafiya	-11.0845
▁mürəkkəb	-11.0845
▁müvəffəq	-11.0845
▁mərhum	-11.0845
▁online	-11.0845
▁qoşulur	-11.0845
▁qripi	-11.0845
▁rəngarəng	-11.0845
▁tanımır	-11.0845
▁teleqra	-11.0845
▁toqquşub	-11.0845
▁velosiped	-11.0845
▁zorakılığ	-11.0845
▁Çoban	-11.0845
▁öküz	-11.0845
▁İNFOQRAFİKA	-11.0845
Galatasaray	-11.0845
▁Hidayət	-11.0845
▁Music	-11.0845
▁Müsabiqə	-11.0845
▁estetik	-11.0845
▁fırıldaq	-11.0845
▁mühazirə	-11.0845
▁mənafeyin	-11.0845
▁qütb	-11.0845
▁unikal	-11.0845
▁xəlifə	-11.0845
▁yetkin	-11.0845
▁şamaxı	-11.0845
▁Aysel	-11.0845
▁Cəlil	-11.0845
▁babək	-11.0845
▁xəzər	-11.0845
məramlı	-11.0845
▁kabab	-11.0845
ıldırım	-11.0845
▁Faiq	-11.0845
▁Yenicag	-11.0845
▁yığılıb	-11.0845
▁heykəl	-11.0845
▁şort	-11.0845
▁Kamran	-11.0845
▁abdulla	-11.0845
▁banisi	-11.0845
▁Mitinq	-11.0845
▁himayə	-11.0845
▁21:00	-11.0845
▁AKP	-11.0845
▁Bitki	-11.0845
▁Zəngin	-11.0845
▁siçan	-11.0845
Manşet	-11.0845
▁Röya	-11.0845
▁salınıb	-11.0845
▁təhqiqat	-11.0845
▁Gəmiçiliyi	-11.0845
▁ELS	-11.0845
▁ezam	-11.0845
▁1918-192	-11.0845
▁mələk	-11.0845
▁öldürən	-11.0845
▁bətnində	-11.0845
▁seçilən	-11.0845
▁oxunuşda	-11.0845
▁Alyansın	-11.0845
▁Devid	-11.0845
▁Yəmən	-11.0845
▁emo	-11.0845
▁Daşkəsən	-11.0845
▁Səttar	-11.0845
▁işıqlandır	-11.0845
▁İndoneziya	-11.0845
▁Axar	-11.0845
▁Fars	-11.0845
▁uduzdu	-11.0845
▁etdirildi	-11.0845
▁ötüb	-11.0846
▁ildırım	-11.0846
▁Aynur	-11.0846
▁vərəsə	-11.0846
▁doktorantura	-11.0846
▁icarə	-11.0846
▁ilham	-11.0846
▁liqası	-11.0846
▁Qəmbər	-11.0846
▁pambıq	-11.0846
▁bütövlüyünü	-11.0846
▁beyt	-11.0846
▁axmaq	-11.0846
▁xəncər	-11.0846
▁göndəriləcək	-11.0846
▁eşidilir	-11.0846
▁ipoteka	-11.0846
▁barel	-11.0846
▁Deməli	-11.0846
▁ayaqqabı	-11.0846
▁XƏBƏRDARLIQ	-11.0846
▁Hesablama	-11.0846
▁təxliy	-11.0846
▁qorxma	-11.0846
▁ölçüsü	-11.0846
▁göstərilib	-11.0846
▁Dərman	-11.0846
▁dəftər	-11.0846
▁uçqun	-11.0846
▁Vüsal	-11.0846
▁intizam	-11.0846
▁texn	-11.0846
▁göstərilir	-11.0846
▁ispan	-11.0846
▁namus	-11.0847
▁təkmilləşdirmə	-11.0847
▁sərfəli	-11.0847
▁vərəq	-11.0847
▁çatmayan	-11.0847
▁toxunur	-11.0847
▁basqın	-11.0847
VLƏ	-11.0847
▁bayır	-11.0847
▁oxunub	-11.0847
▁edilsin	-11.0847
▁borcudur	-11.0847
▁cinas	-11.0847
▁şöhrət	-11.0847
▁ümumiyyətlə	-11.0847
▁əlbə	-11.0847
ükür	-11.0847
həmməd	-11.0847
▁Eyyub	-11.0847
▁arzulayıb	-11.0847
▁aparılacaq	-11.0847
▁ünvanlayıb	-11.0847
▁Feat	-11.0848
▁yaşayacaq	-11.0848
şəkill	-11.0848
▁20:00	-11.0848
▁Siti	-11.0848
▁zəhərlənmə	-11.0848
▁endirib	-11.0848
▁paylaşıb	-11.0848
▁azyaşlı	-11.0848
▁çıxışlar	-11.0848
▁Təzə	-11.0848
▁dəlillər	-11.0848
▁artırılır	-11.0848
▁kəsilməsi	-11.0848
▁yaylaq	-11.0848
▁dəstəklənməsi	-11.0848
▁ucqar	-11.0848
▁Ağdaş	-11.0848
▁alayın	-11.0848
▁taxıl	-11.0848
▁istədiyini	-11.0849
▁genişləndirir	-11.0849
▁Henri	-11.0849
▁gətirilir	-11.0849
▁Şəms	-11.0849
▁gedərkən	-11.0849
iyamət	-11.0849
▁qayıq	-11.0849
▁xarabalıq	-11.0849
▁David	-11.0849
▁buxar	-11.0849
▁borclu	-11.0849
▁çinar	-11.0849
eysm	-11.085
▁Tapet	-11.085
▁yeyinti	-11.085
▁cavablandırılıb	-11.085
▁qatılıb	-11.085
▁düşmək	-11.085
▁budağı	-11.085
▁buraxıb	-11.085
▁göstərilməsi	-11.085
▁Soyuq	-11.0851
▁dağılıb	-11.0851
▁qüdrət	-11.0851
▁qoynunda	-11.0851
▁təsərrüfatların	-11.0851
▁şirəsi	-11.0851
▁çıxartdı	-11.0851
▁əlcək	-11.0851
▁qovur	-11.0851
▁planet	-11.0851
▁alınmalıdır	-11.0851
▁heyvanları	-11.0851
▁tutulması	-11.0852
▁postunda	-11.0852
▁sehr	-11.0852
▁eniş	-11.0852
▁terrorizm	-11.0852
▁dinarı	-11.0852
▁yod	-11.0853
▁metal	-11.0853
▁istehsalçıları	-11.0853
▁adlandırmışdır	-11.0854
▁qovdu	-11.0854
▁xaç	-11.0854
▁15:19	-11.0854
▁Tosu	-11.0854
▁17:12	-11.0854
▁Orucov	-11.0855
▁bölgələrdə	-11.0855
▁axtardığı	-11.0855
▁Təmiz	-11.0855
▁qaçmaq	-11.0855
▁Yurdu	-11.0856
▁Ayxan	-11.0856
▁14:40	-11.0856
▁Haru	-11.0856
▁Səid	-11.0856
▁çirkl	-11.0857
▁15:45	-11.0857
▁arzusunda	-11.0857
atch	-11.0857
▁əlverişlidir	-11.0857
▁girir	-11.0858
▁bölgələrin	-11.0858
▁Təbiət	-11.0858
▁çalışıb	-11.0859
flis	-11.0859
▁həvəslə	-11.0859
▁Sağlam	-11.0859
▁18:30	-11.0859
▁Uç	-11.0861
eksan	-11.0862
▁hazırlayıb	-11.0862
▁baxıram	-11.0863
▁yoxlayıb	-11.0863
▁ssenari	-11.0863
EZ	-11.0863
▁əmlakın	-11.0863
▁Şiə	-11.0863
▁birləşdirir	-11.0863
▁qazax	-11.0864
▁Cəmil	-11.0864
▁qıtlı	-11.0864
Ay	-11.0864
▁Çap	-11.0865
▁prospektində	-11.0865
▁çörək	-11.0865
▁Mühasibat	-11.0865
▁tərəvəz	-11.0865
▁Ekspertiza	-11.0865
▁sərgisində	-11.0866
▁Balakən	-11.0866
▁Gala	-11.0866
▁qılıncda	-11.0867
▁əsaslanır	-11.0867
▁balta	-11.0868
▁gördüm	-11.0868
▁güllələ	-11.0868
▁vermişəm	-11.0869
▁mif	-11.0869
▁Krallığın	-11.087
▁Ədəbi	-11.087
▁Cabbarlı	-11.087
▁təqdirdə	-11.0871
▁nazlı	-11.0871
▁yazılıb	-11.0871
▁keçəl	-11.0872
▁Bio	-11.0872
▁saxlayırlar	-11.0872
▁Arıq	-11.0873
▁yerləşmiş	-11.0874
▁oynamaq	-11.0874
▁arxası	-11.0875
▁taktiki	-11.0876
▁komm	-11.0876
▁sürür	-11.0877
▁əxlaqsız	-11.0877
▁Əski	-11.0877
▁regionlarda	-11.0877
▁kur	-11.0877
▁qarət	-11.0878
▁başlamış	-11.0879
▁sevən	-11.0879
lot	-11.0879
kosmos	-11.088
fiqh	-11.088
▁Manat	-11.0881
▁gəlincə	-11.0882
▁almaniya	-11.0882
▁verdikləri	-11.0882
kov	-11.0883
▁bilməlidir	-11.0884
▁şim	-11.0885
KS	-11.0885
gu	-11.0886
▁74	-11.0886
ahat	-11.0886
▁bitmə	-11.0887
▁tuturdu	-11.0888
▁eləmə	-11.0888
tdi	-11.0888
▁qulağ	-11.0889
▁vii	-11.0889
pian	-11.0891
▁eləməyə	-11.0892
▁Serj	-11.0894
▁yanan	-11.0894
▁nəticəsidir	-11.0896
▁vidalaşdı	-11.0898
▁Mixa	-11.0899
▁Məqsəd	-11.09
▁Kommun	-11.09
▁Nardaran	-11.09
▁Zəngəzur	-11.0901
▁olduğumuz	-11.0901
▁Xırdalan	-11.0901
şəng	-11.0901
▁Xəstəxanasın	-11.0902
▁Rəhm	-11.0902
▁Dinc	-11.0903
▁gücündə	-11.0905
▁tövsiyələr	-11.0905
sək	-11.0906
▁siyahıya	-11.0906
▁genişləndiril	-11.0907
▁məşğuldur	-11.0907
▁əcnəbilər	-11.0909
▁nas	-11.0909
▁Duma	-11.0909
▁baxılması	-11.091
▁izləri	-11.0911
Brent	-11.0913
▁xəstəlikdir	-11.0918
▁növünü	-11.0918
▁Kəlim	-11.0918
▁Ger	-11.0919
▁sabitliyin	-11.0919
▁dibində	-11.092
▁Arı	-11.092
sfer	-11.0921
▁vurğun	-11.0921
▁MR	-11.0924
▁AH	-11.0924
▁təyinatlı	-11.0927
▁oxumağı	-11.0928
▁oxunması	-11.0928
▁dəyib	-11.0929
rbaycan	-11.0929
▁sualın	-11.093
-2018”	-11.0935
▁əxlaqi	-11.0935
▁(1)	-11.0936
▁Birincisi	-11.0936
▁hardasa	-11.0937
▁gücünü	-11.0937
▁danışılı	-11.0938
▁mehra	-11.0938
▁camaatı	-11.094
▁Ayaz	-11.094
lanmışdı	-11.0941
▁hakimlər	-11.0942
▁əyir	-11.0943
▁əyan	-11.0943
▁gülü	-11.0943
▁önəmli	-11.0944
▁çoxluğu	-11.0944
▁fərmanı	-11.0944
▁XVI	-11.0946
tion	-11.0948
▁filmləri	-11.0948
MP	-11.095
▁etirazçılar	-11.0951
▁rejiminin	-11.0953
▁dağıdılmışdı	-11.0955
▁2000	-11.0956
▁58	-11.0956
▁Milan	-11.0957
▁Döyüş	-11.0958
▁əksinə	-11.0958
▁şəkilçi	-11.0958
▁Qarayevin	-11.0959
▁Superliqası	-11.0961
▁elədim	-11.0964
▁durmaq	-11.0965
▁quyruğu	-11.0966
▁09:4	-11.097
▁qorunma	-11.097
▁istəyirdim	-11.0971
▁Qor	-11.0971
▁uçur	-11.0973
▁şeirlərin	-11.0975
▁Mək	-11.0976
▁orqaniz	-11.098
▁saxlanması	-11.0985
▁bilsin	-11.0986
▁günəş	-11.0988
sadələşdirilməsi	-11.0988
▁İslahatlar	-11.0993
▁cənablar	-11.0996
▁xalqını	-11.0999
▁adası	-11.1
▁2010-	-11.1001
▁zad	-11.1002
▁İlah	-11.1004
▁quca	-11.1007
▁BNA	-11.1009
toplama	-11.101
atılır	-11.101
▁Zeynalova	-11.101
▁nömrəsi	-11.1011
▁bilərdilər	-11.1014
▁Şirkətlər	-11.1017
▁yaxınlıq	-11.1017
▁fermerlər	-11.102
▁variantın	-11.102
▁saxlamışdı	-11.1021
▁qaytarır	-11.1022
▁Hakimiyyətin	-11.1023
▁Qəm	-11.1024
▁bak	-11.1026
▁Nəyə	-11.1027
eyib	-11.1034
qarlar	-11.1036
▁qapısı	-11.1037
▁dayana	-11.1039
▁Qurum	-11.1042
▁Qaya	-11.1044
▁Müsahibim	-11.1046
▁Kəpəz	-11.1046
▁Yazıçı	-11.1048
▁medalı	-11.1052
▁adlandırır	-11.1053
▁Əhalisi	-11.1053
▁nitqi	-11.1055
vo	-11.1056
▁çaldı	-11.1056
▁Qur	-11.1058
all	-11.1064
▁yaxınlar	-11.1065
▁vidalaş	-11.1068
layırdı	-11.1069
▁məhlulu	-11.1069
▁Dağın	-11.1069
tmişdi	-11.1074
▁divarı	-11.1075
▁futbolun	-11.1075
▁mövsümünü	-11.1075
▁Ağalar	-11.108
▁xəstələr	-11.1085
▁bilməzlər	-11.1085
▁dərəcəyə	-11.1086
▁iddiaları	-11.1087
▁gizlət	-11.1091
▁Sav	-11.1096
▁Hüseynli	-11.1098
▁bölünü	-11.1099
tanik	-11.11
▁virtual	-11.1106
▁Stadionun	-11.1107
▁nəs	-11.1109
▁Pan	-11.111
▁operator	-11.112
▁Sözü	-11.1121
ərrux	-11.1123
▁bilmirlər	-11.1123
▁Qoyun	-11.1123
▁1990	-11.1124
▁hamısını	-11.1128
▁ştatı	-11.1129
▁Muradov	-11.1135
▁idmanın	-11.1141
▁şeirini	-11.1143
xma	-11.1143
▁əlili	-11.1144
▁çıxıblar	-11.1145
▁ailələrinə	-11.1148
▁Həzrəti	-11.1155
▁Maq	-11.1158
mamışdı	-11.116
▁janrın	-11.1162
▁sevincini	-11.1162
▁döyüşləri	-11.1163
yyətlə	-11.1164
▁Həyatın	-11.1165
Mənə	-11.1168
▁olacaqdı	-11.1172
Rİ	-11.1172
▁Nədən	-11.1182
▁borca	-11.1182
▁qoşa	-11.1183
▁1993	-11.1183
▁Dostları	-11.1185
▁İc	-11.1189
▁160	-11.1191
▁olubdur	-11.1194
▁Xalqın	-11.1197
▁Fir	-11.1198
▁məst	-11.1202
▁suvar	-11.1211
ES	-11.1211
▁salırdı	-11.1215
▁Seym	-11.1216
▁istəmişdi	-11.1229
▁allahın	-11.123
▁qurur	-11.123
▁əlaqədardır	-11.1232
▁axarı	-11.1232
məzlər	-11.1232
▁maaşı	-11.1232
▁Uşağı	-11.124
▁Kəb	-11.1241
▁Ziyafə	-11.1241
▁Artisti	-11.1242
▁apardı	-11.1245
hinə	-11.1258
▁endirdi	-11.1262
▁mindi	-11.1264
▁təsviri	-11.1266
Günəşli	-11.1267
▁mənəm	-11.1268
alov	-11.1268
▁buraxıldı	-11.1269
▁Alın	-11.1274
▁Kompleksin	-11.1277
▁Nigeriyada	-11.1278
▁qarışdı	-11.128
▁dolayı	-11.1281
▁dalğası	-11.1281
.2018	-11.1282
ARA	-11.1287
▁anlar	-11.1288
▁Van	-11.1289
▁Ayağ	-11.129
luqlar	-11.1292
idlər	-11.1294
▁idarələri	-11.1295
▁proseslərin	-11.1302
▁diyarı	-11.1302
sov	-11.1309
boyu	-11.1327
▁Televiziyası	-11.1329
▁16:3	-11.1329
▁qəmi	-11.1332
▁ədəbiyyatımız	-11.1333
▁nümayişi	-11.1334
▁çiçəklər	-11.1339
▁ruhunda	-11.1345
▁Rusla	-11.1347
▁prokurorluğun	-11.1353
▁Prokurorluğuna	-11.1355
▁Cam	-11.1357
▁27-	-11.1359
▁seçkisində	-11.1363
▁görülmüş	-11.1368
▁hasilatını	-11.137
▁dağıt	-11.1376
▁olmadığında	-11.1382
▁sərvətlər	-11.1383
▁qonaqların	-11.1389
▁oyunların	-11.139
▁sahələrini	-11.139
▁yaxındır	-11.1395
▁yazısı	-11.14
rita	-11.1401
▁uzan	-11.1406
-2	-11.1408
bati	-11.141
▁silahı	-11.1411
▁Akademiyasını	-11.1414
▁atır	-11.1416
▁neçəyə	-11.1417
▁24-	-11.143
▁bilin	-11.1431
▁komitəsində	-11.1434
▁bürosun	-11.1435
▁bacarıqlarını	-11.1436
▁asıl	-11.144
SİL	-11.1441
lanmır	-11.1443
▁uzana	-11.1451
▁eylə	-11.1468
▁bilməsi	-11.1469
▁dinləmə	-11.147
AF	-11.147
liyindən	-11.1471
▁Ju	-11.1482
▁qəzəl	-11.1482
▁qəbirlər	-11.1486
▁Qu	-11.1488
laşdırmaq	-11.1489
▁bacım	-11.1489
▁nəslində	-11.1489
▁keyfiyyətin	-11.1491
▁ham	-11.1493
▁şəbəkəsi	-11.1499
▁poçt	-11.15
▁qidalan	-11.15
atan	-11.1501
▁alıblar	-11.1508
▁qana	-11.152
▁başçısını	-11.1523
▁olmadığı	-11.1523
pər	-11.1526
▁Texnologiya	-11.1533
▁stadion	-11.1541
▁Qonaqlar	-11.1544
▁cəsəd	-11.155
▁inşası	-11.155
▁gəlirlər	-11.1551
▁döyüşlər	-11.1553
▁paytaxtda	-11.1553
▁obyektin	-11.1555
▁Qurbanovu	-11.156
▁necədir	-11.1561
▁qaynaq	-11.1568
ğında	-11.157
▁təsisçi	-11.1575
▁Jo	-11.1577
TO	-11.1577
▁nədi	-11.1581
▁obrazı	-11.1582
▁mənbədə	-11.1583
▁avtomobilləri	-11.159
▁Həqiqətə	-11.1593
▁Fil	-11.1596
▁seçkilərdə	-11.1599
▁sektorun	-11.1601
mışıq	-11.1603
▁kürd	-11.1604
let	-11.1605
▁mülkiyyətin	-11.1605
▁aləti	-11.1611
?!	-11.1612
▁əməliyyatlarda	-11.1618
▁mahnısı	-11.1621
▁naxışlar	-11.1626
lumat	-11.1632
▁müəyyənləşdiril	-11.1633
briz	-11.1641
▁elementlərin	-11.1642
▁mədən	-11.1644
▁seçkisin	-11.1648
▁zalı	-11.1649
▁Sərnişin	-11.1651
▁tutmuşdu	-11.1653
▁xəritəsi	-11.1656
▁binalarda	-11.1657
▁Məhkəməsində	-11.1658
▁maye	-11.1658
▁Qarşıda	-11.1659
▁Yanın	-11.1666
▁şairlər	-11.1672
▁mənzilində	-11.1673
▁prokuror	-11.1674
liklərini	-11.1675
▁qazanmışdı	-11.1676
▁Saatlar	-11.1681
▁lazımı	-11.1681
▁yönəl	-11.1684
▁anlayışını	-11.1686
hv	-11.169
▁güzəştl	-11.1702
▁Ayaq	-11.1708
bəy	-11.171
▁evlənmə	-11.171
▁döyüşdə	-11.1713
▁barmaqları	-11.1717
▁istifadəçiləri	-11.1721
▁avadanlıqları	-11.1722
▁Kaş	-11.1723
▁qayıdan	-11.1727
▁generalları	-11.1729
▁Ros	-11.1738
▁sahil	-11.1741
▁şansı	-11.1745
▁dediyi	-11.1751
məzdən	-11.1754
▁önün	-11.1759
▁Qəlb	-11.176
▁Texnika	-11.1763
▁bağlanmış	-11.1768
▁basdı	-11.177
rist	-11.1774
yul	-11.1778
▁müsabiqələr	-11.1783
▁əraziləri	-11.1784
vası	-11.1786
məlum	-11.1791
▁Parkın	-11.1797
▁hissələr	-11.1804
▁alnı	-11.1809
▁maliyyələşdir	-11.1809
▁havaları	-11.181
▁üst	-11.1817
▁Dərd	-11.1827
elim	-11.1829
▁eləmişdi	-11.1831
▁qılı	-11.1837
KO	-11.1839
aşdı	-11.1839
▁funksiyalar	-11.1841
▁guşə	-11.1841
▁kimlər	-11.1851
MA	-11.1851
▁gecələri	-11.1853
ras	-11.186
▁Məlumatları	-11.1863
▁istəmə	-11.1866
▁məşqçilər	-11.1866
66-	-11.1867
▁qaynaqlan	-11.1868
▁fakültəsin	-11.1868
▁Tala	-11.1871
TİA	-11.1874
iləcək	-11.1874
▁anlamı	-11.1875
▁Prokurorluqda	-11.1875
▁şairlərin	-11.1881
▁götürül	-11.1885
▁içi	-11.1889
his	-11.189
diniz	-11.1892
▁kadrları	-11.1893
▁məntiq	-11.1902
▁dediyin	-11.191
landırılıb	-11.1914
▁valyutalar	-11.1915
iblər	-11.1917
81	-11.1918
▁Yat	-11.1933
▁prezidentini	-11.1934
▁Mars	-11.1934
▁şübhə	-11.1938
▁ingilislər	-11.1941
orlar	-11.1942
▁vəzifələrində	-11.1951
▁pozul	-11.1952
▁Vaşinqtonda	-11.1957
limpiya	-11.1967
▁satıla	-11.1969
əliyev	-11.1969
▁içmə	-11.1971
▁olduğunuz	-11.1983
▁funksiyası	-11.1986
aşır	-11.1988
▁getdiyi	-11.1994
▁sax	-11.1998
İR	-11.2
▁başqanı	-11.2001
▁rüsum	-11.2008
eyd	-11.2017
▁paylaş	-11.2029
▁üzvlüyü	-11.2031
▁sərhədçi	-11.2035
▁qaçar	-11.204
▁New	-11.2044
▁xələ	-11.2053
▁stadionu	-11.2056
▁subyekti	-11.206
▁Cəfər	-11.2066
mail	-11.2066
▁yağır	-11.2066
▁Konfrans	-11.2068
▁zərbəsi	-11.2072
45	-11.2072
▁təsvirləri	-11.2072
matik	-11.2074
▁Zavod	-11.2075
▁öldüyü	-11.2075
57	-11.2082
▁təqaüdün	-11.2088
▁havası	-11.2089
▁uzaqlaşdır	-11.2089
▁birləşmə	-11.2094
▁qidalar	-11.2094
▁heyətlə	-11.2105
ble	-11.2108
▁qəzəllər	-11.2119
▁siyahısını	-11.2121
▁aksiyalar	-11.2121
▁etimad	-11.2125
▁Kiyevdə	-11.2129
▁Telefon	-11.2132
tinq	-11.2132
▁həmsədr	-11.2137
▁əlamətləri	-11.2139
▁görül	-11.214
zlu	-11.214
▁sürü	-11.2142
ıydı	-11.2144
▁əllərində	-11.2145
▁qayıda	-11.215
▁ged	-11.215
▁keçiriləcəyi	-11.2155
▁pley	-11.2161
▁gizlə	-11.2164
▁adətləri	-11.2165
▁deyər	-11.2165
örd	-11.2167
▁vəfatı	-11.2169
▁Komitəsində	-11.217
▁agentliyin	-11.2172
▁yığılma	-11.2173
▁nəslini	-11.2173
▁İtaliyada	-11.2173
-30	-11.2177
▁qışı	-11.2177
▁Mənbə	-11.2178
▁qarşılaş	-11.2179
▁tox	-11.2186
▁Tale	-11.2192
▁marağın	-11.2197
▁şəkil	-11.2198
▁eşi	-11.2198
▁biznesi	-11.22
▁rəyi	-11.22
▁yetirdi	-11.22
▁iştirakçılar	-11.2205
▁çempionlu	-11.2217
▁hüceyrələr	-11.2218
▁Diplomati	-11.2219
▁17:3	-11.2232
ST	-11.2236
▁haqlarını	-11.2239
urba	-11.2247
səniz	-11.2247
▁baxışı	-11.2252
▁sığal	-11.2261
▁artımı	-11.2265
▁Masallıda	-11.2266
▁xidmətlərin	-11.2268
▁zəhər	-11.2277
▁195	-11.2278
darı	-11.2279
▁Cəbhədə	-11.2282
ayıl	-11.2283
▁Televiziya	-11.2284
kənarı	-11.2285
ovlu	-11.2288
▁mükafatını	-11.2293
▁səmərə	-11.23
▁87	-11.2302
▁variant	-11.2311
cəsin	-11.2312
▁Yerin	-11.2313
▁hərbçilər	-11.2314
▁xalla	-11.2315
▁Gü	-11.2319
▁saray	-11.232
▁miqdarını	-11.2324
İF	-11.2326
▁tayfaları	-11.2328
▁Nigeriya	-11.2341
lirdi	-11.2341
▁quldur	-11.2342
Əli	-11.2342
övsümün	-11.2343
▁borcunu	-11.2349
▁anı	-11.2355
▁işsiz	-11.2364
▁Festival	-11.2364
▁qaldırma	-11.237
▁iştah	-11.2373
▁Qalan	-11.2374
▁yubileyin	-11.2384
▁Uşağ	-11.2385
▁Kuboku	-11.2392
▁mənbələri	-11.2395
▁bacarıqları	-11.2402
▁təşkilatları	-11.2405
▁komandanın	-11.2414
▁coğrafiya	-11.2418
▁içini	-11.2424
▁dövlətləri	-11.2433
▁çıxmağ	-11.2438
▁hadisəni	-11.2439
▁bayrağını	-11.2442
▁təşviq	-11.2443
▁taleyin	-11.2445
co	-11.2447
▁materiallar	-11.2451
▁ƏN	-11.2452
29	-11.2457
▁keçirdik	-11.2464
▁balansını	-11.2472
▁Qiymət	-11.2474
▁qafqazda	-11.2476
▁kubok	-11.2477
▁yazını	-11.2477
▁14:1	-11.2479
▁dərsləri	-11.2484
durub	-11.2484
▁meydança	-11.249
▁durum	-11.2493
orgi	-11.2504
rux	-11.2504
▁izi	-11.2505
▁istifadəçi	-11.2509
▁orqanlar	-11.2509
▁qayıd	-11.251
▁kəsmə	-11.2525
▁axa	-11.2532
bor	-11.2541
▁alət	-11.2541
▁bölün	-11.2542
▁tərəfdar	-11.2546
▁qohumu	-11.255
▁mütəxəssisləri	-11.2551
▁Avi	-11.2554
ləşib	-11.2554
▁təşəbbüs	-11.2565
SI	-11.2568
▁Sel	-11.2568
erik	-11.2571
▁müdafiəsin	-11.2571
▁Para	-11.2577
▁xəzinə	-11.2578
▁Salah	-11.258
▁parkın	-11.2582
▁hind	-11.2586
▁göstərə	-11.2595
ENT	-11.2597
▁məqaləsi	-11.2598
▁yaralanan	-11.2599
▁77	-11.2599
▁bacarıq	-11.2601
▁izləyir	-11.2606
▁bişir	-11.261
22-	-11.2612
▁toz	-11.2613
TE	-11.2616
27	-11.2621
▁Yal	-11.2624
▁soyqırım	-11.2629
anta	-11.2633
▁kv	-11.2633
oro	-11.2633
▁mübarizəni	-11.2634
▁döyüşü	-11.2637
▁növlərini	-11.2637
▁gücləndirilm	-11.2637
▁uçot	-11.2639
-25	-11.2639
▁telefonları	-11.2645
Cəfər	-11.2647
▁hüceyrələrin	-11.2648
dəniz	-11.2648
BNA	-11.2648
▁zərbələr	-11.2649
▁stimul	-11.265
News	-11.2652
məşq	-11.2654
Süleyman	-11.2654
Serbiya	-11.2656
▁çarx	-11.2657
FİFA	-11.2658
▁kapital	-11.2658
Axundov	-11.2659
Səhər	-11.2659
qanuni	-11.266
mühafizə	-11.266
Hüquq	-11.266
anışıqlar	-11.2661
texniki	-11.2661
Kitab	-11.2662
video	-11.2662
Şərq	-11.2662
Suriya	-11.2663
Quş	-11.2663
Xalq	-11.2664
İslam	-11.2664
dövlət	-11.2664
Belə	-11.2664
İlham	-11.2665
qədər	-11.2665
Qara	-11.2665
▁səfərim	-11.2666
▁başımı	-11.2666
aktiv	-11.2667
▁yanlış	-11.2668
eviç	-11.2669
Allah	-11.2672
qalan	-11.2673
Gün	-11.2674
▁dostlarını	-11.2676
Şah	-11.2677
▁səy	-11.2678
▁Davud	-11.268
Mənim	-11.2683
otel	-11.2683
▁qurbanları	-11.2688
hazırd	-11.2692
▁rəhbərliyini	-11.2701
▁işləmişdi	-11.2702
▁qalanlar	-11.2703
cra	-11.2704
▁Audit	-11.2704
▁köç	-11.2705
▁liderlərin	-11.2706
▁dönə	-11.2706
▁gül	-11.2711
▁idmançılar	-11.2714
▁vətəndaşlığın	-11.2714
▁kampaniyasın	-11.272
▁76	-11.2722
▁Frans	-11.2723
▁Müəllimlər	-11.2726
▁səsləndi	-11.2726
▁tanınır	-11.273
▁kərə	-11.2732
▁eşitmə	-11.2732
▁yuva	-11.2737
▁Quru	-11.2745
▁biznesin	-11.2746
▁halların	-11.2748
▁həz	-11.2749
rast	-11.275
▁yuxuda	-11.275
təminatl	-11.2754
▁medalla	-11.2755
▁gördü	-11.2757
▁keçirilmə	-11.2757
▁Gec	-11.276
tmə	-11.276
çılığın	-11.2763
▁Sahib	-11.2765
▁futbolçunu	-11.2765
▁Dəqiq	-11.2766
▁istəyirsə	-11.2768
▁qabağında	-11.2769
▁tapşırıqları	-11.2773
▁qalmaqda	-11.2775
omen	-11.2782
▁sora	-11.279
▁Ze	-11.2796
oğrul	-11.2798
▁tələf	-11.2801
▁2008	-11.2803
▁nəvə	-11.2803
▁Bak	-11.2805
hmədli	-11.2805
iyyatı	-11.2806
▁çevrilmiş	-11.2806
mud	-11.2806
▁deyilən	-11.2808
azanın	-11.2811
Məmmədova	-11.2812
▁səhnəsi	-11.2814
▁bağları	-11.2815
▁bayat	-11.2815
▁coğrafi	-11.2821
▁agent	-11.2822
▁tərəfdaşı	-11.2823
▁110	-11.2825
▁səlahiyyətl	-11.2826
▁analar	-11.2826
▁artmaqda	-11.2826
▁Yardım	-11.2827
▁səhra	-11.2833
▁yasaq	-11.2833
▁Dairə	-11.2834
▁öldürüldü	-11.2834
sifət	-11.2835
karlıq	-11.2836
▁edilməli	-11.2838
▁Təbri	-11.2838
▁terrorçuları	-11.2839
▁alınmışdı	-11.2841
əqsirləndiri	-11.2842
əxminən	-11.2842
əsdiq	-11.2842
▁cəzalandır	-11.2842
əsərrüfatı	-11.2842
emarlıq	-11.2843
Elektro	-11.2843
▁Federa	-11.2843
öhnə	-11.2843
▁məmnun	-11.2843
▁Şahmat	-11.2843
▁hündür	-11.2843
▁qoşulma	-11.2844
▁apr	-11.2844
▁verilmişdi	-11.2844
qoyunlu	-11.2844
▁pedaqo	-11.2844
▁əfəndi	-11.2844
ildiyimiz	-11.2844
▁radikal	-11.2844
news	-11.2845
▁Paşa	-11.2845
▁təcrid	-11.2845
Azərenerji	-11.2845
Azərxalça	-11.2845
▁Professor	-11.2845
▁UNESCO	-11.2845
▁ingiltərə	-11.2845
▁simfoni	-11.2845
Azerbaijan	-11.2845
Azerspace	-11.2845
Lukoil	-11.2845
Qazprom	-11.2845
Tvente	-11.2845
YENİLƏNİR	-11.2845
viazərbələr	-11.2845
ırğızıstan	-11.2845
▁Almatı	-11.2845
▁Aparatın	-11.2845
▁Avtobus	-11.2845
▁Azinforum	-11.2845
▁Breddok	-11.2845
▁Buynuz	-11.2845
▁Cebhe	-11.2845
▁Chrome	-11.2845
▁DƏHŞƏT	-11.2845
▁Estoniya	-11.2845
▁Fatih	-11.2845
▁FİNAL	-11.2845
▁Gündüz	-11.2845
▁Harvard	-11.2845
▁Hollivud	-11.2845
▁Liberman	-11.2845
▁Merkel	-11.2845
▁MƏLUMAT	-11.2845
▁MƏZƏNNƏSİ	-11.2845
▁Məsuliyyət	-11.2845
▁Namazov	-11.2845
▁Nəşriyyat	-11.2845
▁OLUNACAQ	-11.2845
▁OLUNDU	-11.2845
▁Peskov	-11.2845
▁Quyruq	-11.2845
▁Redaksiya	-11.2845
▁Seminar	-11.2845
▁Vitse	-11.2845
▁Xorasan	-11.2845
▁Xudaverdi	-11.2845
▁Zəlzələ	-11.2845
▁arzulayıram	-11.2845
▁bacarığı	-11.2845
▁barrel	-11.2845
▁bağışlayır	-11.2845
▁dialekt	-11.2845
▁doğulub	-11.2845
▁keramika	-11.2845
▁kollec	-11.2845
▁kollegiya	-11.2845
▁kölgə	-11.2845
▁köpək	-11.2845
▁lütfən	-11.2845
▁ləqəb	-11.2845
▁ləyaqət	-11.2845
▁müqabil	-11.2845
▁məqsədəuyğun	-11.2845
▁narkomaniya	-11.2845
▁nəsihət	-11.2845
▁orkestr	-11.2845
▁oçerk	-11.2845
▁prorektor	-11.2845
▁qaşığı	-11.2845
▁quberniyası	-11.2845
▁robot	-11.2845
▁rəqqasə	-11.2845
▁rəğmən	-11.2845
▁salamlayıram	-11.2845
▁simpozium	-11.2845
▁siqnal	-11.2845
▁sökülməsi	-11.2845
▁sərkərdə	-11.2845
▁toplanış	-11.2845
▁təcnis	-11.2845
▁ÜDM	-11.2845
▁İrlandiya	-11.2845
▁İsrafil	-11.2845
▁İstismar	-11.2845
▁Şikayət	-11.2845
Atəşgah	-11.2845
Pentaqon	-11.2845
lüğət	-11.2845
▁ADPU	-11.2845
▁Arıxlı	-11.2845
▁Molekul	-11.2845
▁Münsiflər	-11.2845
▁Müştəri	-11.2845
▁Nümayəndə	-11.2845
▁PFL	-11.2845
▁Porno	-11.2845
▁Sahibkarlar	-11.2845
▁TASS	-11.2845
▁absurd	-11.2845
▁detalları	-11.2845
▁dəyirman	-11.2845
▁hicab	-11.2845
▁intonasiya	-11.2845
▁kapitan	-11.2845
▁kəmiyyət	-11.2845
▁mühasirə	-11.2845
▁osmanlı	-11.2845
▁qısqanc	-11.2845
▁romantizm	-11.2845
▁semestr	-11.2845
▁torpaqlarımızın	-11.2845
▁ziyafət	-11.2845
▁İxtisas	-11.2845
▁Şəffaf	-11.2845
▁şayiələr	-11.2845
▁şumer	-11.2845
▁Əmanət	-11.2845
▁Əşrəf	-11.2845
əleyhim	-11.2845
▁BAŞLA	-11.2845
▁FAO	-11.2845
▁Fatimə	-11.2845
▁Logist	-11.2845
▁boksçu	-11.2845
▁fransa	-11.2845
▁sterlinq	-11.2845
▁toxunub	-11.2845
▁ələsgər	-11.2845
▁əqidə	-11.2845
▁BBC	-11.2845
▁Eyvaz	-11.2845
▁Kemeron	-11.2845
▁Romantizm	-11.2845
▁macəra	-11.2845
▁rəftar	-11.2845
▁Oğul	-11.2845
▁darvaz	-11.2845
▁diviziy	-11.2845
▁dosent	-11.2845
▁keşiş	-11.2845
SizinYol	-11.2845
önlü	-11.2845
▁bağışlaya	-11.2845
▁iradəsi	-11.2845
▁yaltaq	-11.2845
qutusu	-11.2845
▁Məsumə	-11.2845
▁bomba	-11.2845
▁salınacaq	-11.2845
▁zolağın	-11.2845
Taliban	-11.2845
İdrak	-11.2845
▁USD	-11.2845
▁avadanlığ	-11.2845
▁qafiyə	-11.2845
▁süleys	-11.2845
▁tufan	-11.2845
▁unudulmaz	-11.2845
▁13:50	-11.2845
▁Nikah	-11.2845
▁Nərmin	-11.2845
▁tanınan	-11.2845
▁avaz	-11.2845
▁karvansara	-11.2845
▁nərgiz	-11.2845
▁orbit	-11.2845
▁sintez	-11.2845
▁Nuh	-11.2845
▁sətirlər	-11.2845
▁16:00	-11.2845
▁fraqment	-11.2845
İnform	-11.2845
▁magistratura	-11.2845
▁13:00	-11.2845
▁Ordubad	-11.2845
▁Tunis	-11.2845
▁casus	-11.2845
▁hostin	-11.2845
▁partla	-11.2845
▁Panama	-11.2845
▁səkkizinci	-11.2845
▁İbrahimbəyov	-11.2845
Viktor	-11.2845
▁istiqrazları	-11.2845
▁təqlid	-11.2845
://	-11.2845
▁alıcı	-11.2845
▁eybəcər	-11.2845
▁İsmail	-11.2845
ANLI	-11.2845
▁qrammatik	-11.2845
▁Hafiz	-11.2845
▁Bayatı	-11.2846
▁əmsal	-11.2846
▁hərarət	-11.2846
▁qubernatoru	-11.2846
▁Kadr	-11.2846
▁İmad	-11.2846
▁meyar	-11.2846
▁tonqal	-11.2846
▁gəlmisiniz	-11.2846
▁hazırlanacaq	-11.2846
▁DMX	-11.2846
▁cahan	-11.2846
▁teleaparıcı	-11.2846
▁Nağıyev	-11.2846
▁rahib	-11.2846
▁arzuolunmaz	-11.2846
edilməzdir	-11.2846
▁dəyişikliy	-11.2846
▁Xoşbəxtlik	-11.2846
yordu	-11.2846
▁bəxtiyar	-11.2846
▁fərəh	-11.2846
▁keçirilməlidir	-11.2846
▁Filtr	-11.2846
▁ruhani	-11.2846
▁depressiya	-11.2846
▁himni	-11.2846
▁XƏBƏRLƏR	-11.2846
pasport	-11.2846
▁diaqnostik	-11.2846
▁müəllifidir	-11.2846
▁verilməlidir	-11.2846
okal	-11.2846
▁xatırladı	-11.2846
maqnit	-11.2846
▁Polad	-11.2846
▁kurqan	-11.2846
obbi	-11.2846
▁nomina	-11.2846
Black	-11.2846
▁bəlası	-11.2846
irçəl	-11.2846
▁asayiş	-11.2846
▁tənəffüs	-11.2846
▁tullantı	-11.2846
▁Eynulla	-11.2846
▁təchizatı	-11.2847
▁çaxacaq	-11.2847
▁müdafiəçiləri	-11.2847
▁vurmuşdu	-11.2847
▁Romantik	-11.2847
▁Sənətkar	-11.2847
▁Keçid	-11.2847
▁Qorbaçov	-11.2847
▁inamla	-11.2847
▁çatdırılması	-11.2847
sanitar	-11.2847
▁çatdırılacaq	-11.2847
▁Buxar	-11.2847
▁yataqxana	-11.2847
▁audio	-11.2847
▁2003-	-11.2847
▁Vyana	-11.2847
▁Abdulla	-11.2847
▁aviasiya	-11.2847
▁alveri	-11.2847
timad	-11.2847
▁murad	-11.2847
▁qoşulmağa	-11.2847
▁uçub	-11.2847
▁vuruldu	-11.2847
▁oynayıb	-11.2847
▁həndəs	-11.2847
▁parla	-11.2847
▁yığılır	-11.2847
▁Onlan	-11.2847
öhrət	-11.2847
▁məmnunluq	-11.2847
▁Xuda	-11.2847
▁Xeyir	-11.2847
▁aciz	-11.2847
▁açılacaq	-11.2848
▁tacı	-11.2848
▁açıqlamışdı	-11.2848
▁2005-	-11.2848
▁səsləndirilib	-11.2848
▁türkmən	-11.2848
▁Çempionatın	-11.2848
doğan	-11.2848
▁kökündə	-11.2848
▁yoxlanıl	-11.2848
▁Təndir	-11.2848
▁görülməsi	-11.2848
yasət	-11.2849
▁kabel	-11.2849
▁Orxan	-11.2849
▁tikdir	-11.2849
▁İqtisadçı	-11.2849
▁Şərifov	-11.2849
▁Sevdiyi	-11.2849
Torpaq	-11.2849
▁ovuc	-11.2849
▁qaldırılıb	-11.2849
▁ətrini	-11.2849
ƏRH	-11.2849
▁iqt	-11.2849
şaxə	-11.2849
▁profilaktikası	-11.285
▁şübhəsiz	-11.285
▁mütə	-11.285
▁əsəcək	-11.285
pers	-11.285
▁Günah	-11.285
▁Mirzəyev	-11.285
▁Səhv	-11.285
▁razıyam	-11.285
▁məşə	-11.285
▁ucuzlaşıb	-11.285
▁maraqlanır	-11.285
fərhad	-11.285
▁12:09	-11.2851
▁sığortalanması	-11.2851
▁sevinirəm	-11.2851
▁salınması	-11.2851
▁düşməsi	-11.2851
▁tanındı	-11.2851
▁Corab	-11.2851
lidey	-11.2851
▁istəməyən	-11.2851
üfət	-11.2851
▁Balayev	-11.2851
▁açıqlanması	-11.2851
madığı	-11.2852
Maykl	-11.2852
▁sexi	-11.2852
oplusu	-11.2852
▁qərarlaşıb	-11.2852
▁adlandırılır	-11.2852
▁əmisi	-11.2852
▁Şou	-11.2852
▁bildiriş	-11.2852
ktual	-11.2852
▁Tərlan	-11.2852
▁xatırlayır	-11.2853
▁qoruyan	-11.2853
▁mehdi	-11.2853
▁tənbəl	-11.2853
▁gətirəcək	-11.2853
▁sorğusu	-11.2853
▁Əmr	-11.2853
▁Üzüm	-11.2853
▁istədikləri	-11.2853
▁fındı	-11.2854
▁qazisi	-11.2854
▁yaralandı	-11.2854
ərəfdaşlığı	-11.2854
▁Nəfəs	-11.2854
▁peri	-11.2855
▁satıb	-11.2855
▁şənliyi	-11.2855
▁şəffaflığı	-11.2855
▁fotosu	-11.2855
▁xətrin	-11.2855
Atatürk	-11.2856
▁qaralama	-11.2856
▁çayxana	-11.2856
▁İfad	-11.2856
▁Qulaq	-11.2856
▁noy	-11.2856
▁işlənib	-11.2856
▁Xeberler	-11.2856
▁13:10	-11.2856
▁Oktar	-11.2856
▁vəsiyyət	-11.2856
▁əlillərinə	-11.2856
▁12:30	-11.2856
▁Şok	-11.2856
▁hindu	-11.2856
▁Qatar	-11.2856
▁1919	-11.2856
küy	-11.2856
əqin	-11.2856
▁baxışda	-11.2857
▁Hüma	-11.2857
▁yatıb	-11.2857
▁ziddir	-11.2857
Nİ	-11.2857
▁yoxlanması	-11.2857
▁Çoxlu	-11.2858
▁TƏH	-11.2858
atura	-11.2858
▁güclüdür	-11.2858
▁dinamikası	-11.2858
▁çıxaracaq	-11.2858
▁dilbər	-11.2858
▁dəstəkləyirik	-11.2858
▁sevirsən	-11.2858
▁metodu	-11.2858
ommersant	-11.2859
YAN	-11.2859
▁hücumçu	-11.2859
▁öyrənib	-11.2859
▁burnun	-11.2859
▁Yüz	-11.2859
▁işləyib	-11.2859
▁versən	-11.2859
2020-	-11.286
▁Vii	-11.286
▁damcı	-11.286
▁mö	-11.286
xucu	-11.286
▁kəsilib	-11.286
▁qabıq	-11.286
▁enib	-11.2861
▁verərək	-11.2861
▁Sosialist	-11.2861
▁12:27	-11.2861
▁qapısını	-11.2861
▁sındır	-11.2861
▁ATV	-11.2862
▁şadlıq	-11.2862
▁Qusar	-11.2862
▁texnologiyası	-11.2862
emyo	-11.2862
▁ADU	-11.2862
▁çəkilməyə	-11.2862
▁21.09	-11.2863
qeyrət	-11.2863
Gündəm	-11.2863
xeberleri	-11.2864
▁tanınma	-11.2864
▁yub	-11.2864
▁əlifbası	-11.2864
▁dəyişdirildi	-11.2865
▁fiquru	-11.2865
▁Mahnı	-11.2865
▁metrosu	-11.2866
▁Nağıl	-11.2866
▁elit	-11.2866
▁əvəzsiz	-11.2866
▁heydər	-11.2866
▁halındadır	-11.2866
▁doludur	-11.2866
▁Oxucu	-11.2866
▁tərzd	-11.2866
▁bitərəf	-11.2867
▁Fərid	-11.2867
▁Maddi	-11.2867
▁sənətçi	-11.2868
▁İncə	-11.2869
▁XV	-11.2869
▁Universitetlər	-11.287
ocuq	-11.287
▁kök	-11.287
▁ADNSU	-11.287
▁Fəxri	-11.287
▁Müsahibə	-11.287
▁YouTube	-11.287
▁Dərbənd	-11.287
▁Qurultay	-11.287
▁Saakaşvili	-11.287
▁Kapital	-11.287
▁doğulmuş	-11.287
▁filan	-11.2871
▁Saleh	-11.2872
▁topladı	-11.2872
ffi	-11.2872
▁keçmir	-11.2872
▁işığı	-11.2872
▁Fari	-11.2872
▁Deyirlər	-11.2873
▁uzanır	-11.2873
iyəli	-11.2874
▁sufi	-11.2874
▁Alış	-11.2876
▁kilsəsi	-11.2876
▁edam	-11.2876
əkilişlər	-11.2876
▁Cəfərli	-11.2876
▁Əh	-11.2877
▁psixoloq	-11.2877
▁olmurdu	-11.2877
▁bilmirsən	-11.2879
sfor	-11.288
▁pozan	-11.288
▁Bəhram	-11.2881
▁kəsilən	-11.2882
▁koma	-11.2882
▁odda	-11.2883
▁əlac	-11.2883
▁işsizlik	-11.2883
ortları	-11.2884
▁iqtisadçı	-11.2884
▁yerləşmişdir	-11.2885
▁vətəndaşlıq	-11.2885
▁əlindəki	-11.2885
▁Bel	-11.2885
▁taraz	-11.2886
▁bilirəm	-11.2886
▁Ziyad	-11.2887
▁Zeyn	-11.2887
▁götürən	-11.2888
▁ziyad	-11.2888
▁arxasına	-11.2888
▁Qəd	-11.2889
sizliyi	-11.2889
▁dərsliyi	-11.289
▁xətalar	-11.289
▁aman	-11.289
▁oynayırdı	-11.2891
▁partnyor	-11.2891
▁Metropoliteni	-11.2891
▁yetirməsi	-11.2892
▁ağzına	-11.2892
▁atmaq	-11.2892
▁oyanma	-11.2893
▁tutaraq	-11.2893
▁bazasından	-11.2893
▁bilirik	-11.2893
▁zavodları	-11.2895
▁vurğulayır	-11.2896
▁imperiyası	-11.2896
▁17:30	-11.2897
▁altay	-11.2898
Koroğlu	-11.2898
islam	-11.2898
sesi	-11.2899
▁çarı	-11.29
▁Bugün	-11.2901
▁antik	-11.2903
▁yaşamışdır	-11.2903
▁əvəzinə	-11.2905
▁mənasız	-11.2908
▁Abidə	-11.2908
▁lib	-11.2909
▁deyərdi	-11.2909
▁mağazalarında	-11.291
▁yetişir	-11.2912
-05-201	-11.2913
▁quruculu	-11.2914
qaş	-11.2914
▁http	-11.2914
▁Ucnoqta	-11.2914
▁konstruktiv	-11.2914
▁Hədəf	-11.2914
▁Zirvə	-11.2914
▁Neftçala	-11.2914
▁kəndlilər	-11.2914
▁arena	-11.2914
▁yetişdir	-11.2915
ardılar	-11.2915
▁bərb	-11.2916
▁səma	-11.2916
▁Milad	-11.2917
▁2008-	-11.2917
▁məq	-11.2918
▁başlanması	-11.2919
▁sağal	-11.2919
▁nigaran	-11.2921
▁buraxmır	-11.2921
▁olunmamış	-11.2924
▁ilahi	-11.2925
zib	-11.2925
▁hadi	-11.2928
▁pak	-11.2929
▁Bağdad	-11.2929
▁Zül	-11.2929
▁qətlin	-11.2929
▁norması	-11.293
▁göstəricisi	-11.293
▁Bulaq	-11.2931
▁Ulduzum	-11.2932
▁ağladı	-11.2932
▁çıxaraq	-11.2934
▁Zək	-11.2934
▁xalçaçılığ	-11.2935
real	-11.2935
▁yerləşirdi	-11.2936
▁istədiyiniz	-11.2936
AVA	-11.2937
liği	-11.2937
▁dəsti	-11.2937
Əzəl	-11.2937
▁dağıdılır	-11.2938
▁eşitmək	-11.2939
▁götürmək	-11.2941
▁soyad	-11.2941
▁yarana	-11.2942
▁ödəmək	-11.2942
▁mərd	-11.2945
▁zərərli	-11.2945
▁yazırdı	-11.2945
▁danışmır	-11.2945
bek	-11.2945
▁Sha	-11.2946
▁Qalib	-11.2948
▁ox	-11.2949
▁Buradakı	-11.2951
▁Hay	-11.2952
▁Haqqı	-11.2952
blog	-11.2953
▁kərim	-11.2953
▁Nis	-11.2955
▁Gil	-11.2959
1980-	-11.2959
▁Qəzənfər	-11.2959
▁2011-	-11.2959
▁Marja	-11.2959
qabağı	-11.296
▁Qoşunları	-11.2961
▁ölümlə	-11.2961
▁qarşılanma	-11.2961
▁seçir	-11.2961
▁tanınırdı	-11.2962
▁gəlsin	-11.2964
▁fikirləşə	-11.2964
▁Konfederasiyası	-11.2965
zinət	-11.2967
▁fayl	-11.2971
gəlməz	-11.2971
▁Fay	-11.2971
▁edərlər	-11.2971
▁cəsarət	-11.2974
▁kərəm	-11.2974
▁qayıtdılar	-11.2975
▁çəkmir	-11.2976
▁qənd	-11.2977
▁eşidir	-11.2977
▁Atları	-11.2978
▁iqtidarın	-11.2978
▁məzmunda	-11.2978
▁səfərdədir	-11.2979
▁Qra	-11.298
▁tələ	-11.2981
▁istəmirlər	-11.2981
LK	-11.2981
har	-11.2982
▁obyektləri	-11.2983
▁tərəfındə	-11.2986
▁çatdırdı	-11.2988
▁Səfirliyi	-11.2991
▁quran	-11.2992
▁ayədə	-11.2995
▁GB	-11.2998
▁halında	-11.2999
▁sırasında	-11.3002
▁liderləri	-11.3004
▁tanıyırdı	-11.3005
▁Vəli	-11.3008
▁94	-11.3008
uza	-11.3009
ümüz	-11.3009
▁Kum	-11.301
▁Qəzeti	-11.3011
▁əhəmiyyətlidir	-11.3011
▁götürdük	-11.3015
▁sevinə	-11.3016
▁burun	-11.3017
olmaz	-11.3017
epozit	-11.3018
trol	-11.3019
▁Vil	-11.302
▁yanacaqlar	-11.302
▁Pri	-11.3021
▁ılar	-11.3021
▁ölkəniz	-11.3025
altılar	-11.3025
vant	-11.3026
▁Öpüşmə	-11.3033
▁Bahal	-11.3034
arova	-11.3035
pass	-11.3035
▁dek	-11.3036
SB	-11.3037
▁Danışıq	-11.3038
İstehsalat	-11.3039
dıqlarını	-11.304
▁yazıları	-11.3041
▁Elan	-11.3042
▁Oman	-11.3044
▁dəbdə	-11.3044
▁vəziyyətlə	-11.3045
▁stansiyaların	-11.3046
▁keçirirlər	-11.3046
▁etməlidirlər	-11.3048
▁aralıq	-11.3049
▁minib	-11.3049
▁erməniləri	-11.3052
▁xii	-11.3054
uyur	-11.3054
▁oturacağın	-11.3055
▁elçisi	-11.3055
▁mətbuatında	-11.3055
▁600-	-11.3056
▁versiyası	-11.3057
▁əzim	-11.3058
▁yaxınlaşır	-11.3059
▁Nəs	-11.306
laşdırılmasında	-11.3062
▁iynə	-11.3064
▁Əhmədli	-11.3064
▁Atı	-11.3065
▁seçilməsi	-11.3065
▁qurbanlarını	-11.3066
▁şəxsiyyəti	-11.3067
▁atlı	-11.3069
lıyıq	-11.3069
▁arzusunu	-11.307
▁req	-11.3072
▁Şirvanda	-11.3073
▁mii	-11.3074
sal	-11.3076
▁gündür	-11.3076
▁ərim	-11.3079
▁saldılar	-11.308
▁məbədi	-11.308
▁İnqilabın	-11.3082
▁Amerikalı	-11.3084
▁qırağ	-11.3085
▁Sarayın	-11.3086
▁xoşbəxtliyin	-11.3087
▁verməklə	-11.3088
▁uyğunlaş	-11.309
verici	-11.3091
▁axınında	-11.3092
▁Ümü	-11.3093
▁Ave	-11.3093
▁mürəbbəsi	-11.3093
▁siyasətlə	-11.3095
enti	-11.3096
▁ruhiyyə	-11.3098
▁yararlan	-11.3099
ntizam	-11.3099
anam	-11.3101
▁verəcəklər	-11.3102
▁yaşıl	-11.3103
▁səninlə	-11.3105
▁reallaşdır	-11.3109
▁atıcı	-11.311
▁Əkinçi	-11.3111
▁aşdı	-11.3112
kom	-11.3113
▁Məlumatlarda	-11.3115
▁çıxarırdı	-11.3117
laşması	-11.3119
Türkologiya	-11.3119
fira	-11.3119
▁ovu	-11.3119
▁toyun	-11.312
▁potensialı	-11.3124
▁Kazımov	-11.3128
iftar	-11.3129
▁toqquşmalar	-11.313
qalereya	-11.3135
▁qorxun	-11.3136
▁dinləyən	-11.3136
▁İri	-11.3137
tartap	-11.3137
▁qəlbində	-11.3144
▁yayılması	-11.3144
▁qurulmuşdu	-11.3144
▁vaxtıdır	-11.3146
▁zin	-11.3148
ender	-11.315
▁qardaşım	-11.3154
çıxarma	-11.3159
▁minir	-11.316
▁əlaqələrimiz	-11.316
▁üsulları	-11.3161
▁qəzetlərin	-11.3162
▁mərkəzlərində	-11.3163
▁mitinqi	-11.3169
▁qazandır	-11.3169
▁edilməsində	-11.317
bac	-11.3175
▁gəlmirdi	-11.3178
RƏ	-11.3179
▁avtomobillərdə	-11.318
1995	-11.3181
▁demir	-11.3182
▁xalqdır	-11.3185
▁sevindi	-11.3185
▁variantı	-11.3188
▁toqquşması	-11.3191
▁vacibliyin	-11.3192
▁bayramını	-11.3194
▁sevirdi	-11.3199
▁aksi	-11.3199
▁qarşısın	-11.32
▁Pul	-11.32
▁imzalayıblar	-11.32
▁olsunlar	-11.32
85	-11.3201
▁ətəyində	-11.3202
▁bazarlar	-11.3202
▁dəyərləndirir	-11.3205
▁sen	-11.3208
▁savaşın	-11.3212
▁abidəsi	-11.3214
▁tənə	-11.3215
▁göndərin	-11.3216
▁haray	-11.3219
▁satdı	-11.3221
▁suverenliyini	-11.3221
▁kərbəlay	-11.3222
▁Səma	-11.3226
▁Vəkillər	-11.323
▁Aliyə	-11.3232
▁icazəsi	-11.3233
▁w	-11.3234
▁DÖ	-11.3238
qası	-11.3244
2025	-11.325
▁bayatılar	-11.325
▁bahalaşması	-11.3253
▁Tədqiqatları	-11.3255
▁rəqibində	-11.3255
▁seminarlar	-11.3259
▁zonası	-11.326
▁elçin	-11.3261
▁arzum	-11.3267
lövhəl	-11.3268
▁səlahiyyətlər	-11.327
▁eləsin	-11.3271
▁daxilən	-11.3274
▁çiynin	-11.3274
▁Pənahov	-11.3278
▁Arvadın	-11.3281
▁verəcəyi	-11.3283
▁rəylər	-11.3284
▁kaş	-11.3284
▁Millimiz	-11.3286
▁bağdad	-11.3288
▁üzüm	-11.3293
qoyma	-11.3294
▁Tat	-11.3299
▁televiziyasın	-11.3301
▁deyilənlər	-11.331
▁endirmə	-11.3312
▁qurultayın	-11.3316
▁çərşənbəsi	-11.3317
▁Kubokunu	-11.332
▁imzalan	-11.3322
▁studiya	-11.3324
▁Fe	-11.3326
▁divarları	-11.3326
▁eynidir	-11.3333
▁fət	-11.3336
ros	-11.3341
Fidan	-11.3346
▁hazırlayan	-11.335
▁Səfəvilər	-11.3352
▁içkilər	-11.3355
▁çalır	-11.3355
▁standartları	-11.3359
▁ölümündə	-11.3363
▁istəyirsiniz	-11.3366
▁mənaları	-11.3367
▁dolaş	-11.3371
▁yarıl	-11.3372
▁sübutlar	-11.3372
▁dillərin	-11.3373
▁kifayətlən	-11.3377
▁qalmı	-11.3383
▁oxuyar	-11.3384
▁qabaqda	-11.3385
▁18:3	-11.3387
▁Məktəbə	-11.3388
▁nailiyyətləri	-11.3388
▁bağlanması	-11.3393
kanal	-11.3393
ləşmişdir	-11.3399
Sərhədçi	-11.3399
abat	-11.3404
siye	-11.3405
▁dedik	-11.3412
▁Qut	-11.3414
▁Vəzifə	-11.3414
▁vətəndaşlarının	-11.3415
▁qərargahın	-11.3416
▁yazılır	-11.342
▁Kərbəlay	-11.3431
▁istiqamətləri	-11.3436
read	-11.344
▁ailədən	-11.3441
▁köçürmə	-11.3444
▁Dərdin	-11.3448
batan	-11.3453
▁157	-11.3456
▁ağca	-11.3467
tiqam	-11.3467
Re	-11.3471
əskin	-11.3471
ps	-11.3473
▁İnsanov	-11.3475
▁ocaqların	-11.3482
iynə	-11.3482
▁Qızı	-11.3483
ARŞ	-11.3484
▁ortaq	-11.3486
▁pr	-11.3493
▁fal	-11.3495
▁futbolçularda	-11.3498
yik	-11.3499
düyünü	-11.3502
Bor	-11.3503
▁komplekslərini	-11.3505
▁işlədilə	-11.3506
ektura	-11.3507
▁meyitləri	-11.351
▁zər	-11.3514
▁mədənlərin	-11.3515
▁sistemlərini	-11.3523
▁mühitin	-11.3528
adam	-11.3529
▁ağzında	-11.353
▁qalmaz	-11.3531
▁hazırlığ	-11.3539
mv	-11.3542
▁formalaşı	-11.3544
▁adlanmışdı	-11.3545
▁Səfərov	-11.3546
▁Vasi	-11.3547
▁Telekom	-11.3547
▁dostluğu	-11.3549
▁edirsən	-11.3552
57-	-11.3562
▁bacıları	-11.3564
▁cəlal	-11.3566
▁gedəndən	-11.3567
Gənclər	-11.3572
▁quruculuğun	-11.3575
▁institutu	-11.3578
▁Alov	-11.359
▁nəzarətində	-11.359
▁gəmiləri	-11.3594
▁paradı	-11.36
▁gündəliyin	-11.3601
▁yetirmiş	-11.3605
▁raketlərin	-11.3605
▁müşahidəçi	-11.3607
▁eşid	-11.3608
▁inti	-11.3613
▁Qızlar	-11.3621
FM	-11.3635
▁baxışlarını	-11.3639
▁etməmiş	-11.3644
▁pros	-11.3644
▁İnternetdə	-11.3645
▁2013-02-2	-11.3648
madi	-11.3649
▁müsabiqəsin	-11.3652
▁münasibətini	-11.3655
▁azalı	-11.3656
▁yığmasın	-11.3656
▁çempionatda	-11.3665
yandırılır	-11.3672
▁qalmağ	-11.3673
▁perspektivləri	-11.3686
▁uzandı	-11.3687
▁parkı	-11.3687
▁aktyoru	-11.3688
▁avtomobilini	-11.3697
lərkən	-11.3698
▁qarışma	-11.3703
▁materiallarda	-11.3705
▁Səl	-11.3706
▁tərzi	-11.3706
▁abituriyentləri	-11.3708
▁kitabların	-11.371
▁kəlmə	-11.371
155	-11.3725
▁obraz	-11.3746
▁ehtiyatların	-11.3749
▁şəkilləri	-11.3749
▁Hakimiyyətində	-11.3756
▁rüsumu	-11.3758
▁proqnoz	-11.3761
▁birləşmələr	-11.3761
▁müavin	-11.3765
▁şöbəsində	-11.3769
▁baxım	-11.377
▁günlərində	-11.3772
▁qidalanma	-11.3775
▁Araşdırmalar	-11.3775
▁Bədənin	-11.3775
▁stansiyasın	-11.3785
▁gələcəyin	-11.379
▁yaxalanı	-11.3792
▁ruhun	-11.3798
▁qulluqçuları	-11.3799
▁Vətəndaş	-11.3803
▁millisində	-11.3806
dom	-11.3808
▁keçirirdi	-11.3831
▁ard	-11.3836
▁ehtiyacları	-11.3848
ƏTİ	-11.3848
▁varlığı	-11.3849
layacaq	-11.3855
▁boğazın	-11.3857
▁musiqiçi	-11.3858
▁zəncir	-11.3862
▁məntiql	-11.3863
▁Elçi	-11.3864
enko	-11.3872
▁ssr	-11.388
▁göstəricilərin	-11.3885
▁motiv	-11.3893
▁qocalar	-11.3897
▁düşünmür	-11.3898
UNU	-11.3905
▁universiteti	-11.3926
siyasını	-11.3932
▁17:2	-11.3938
ərəc	-11.394
▁məktubların	-11.3944
▁duyğu	-11.3946
▁yanaşa	-11.3946
▁prinsiplər	-11.3947
▁bəndin	-11.3964
▁maddəsin	-11.3966
▁regionların	-11.3971
dırırdı	-11.3972
▁kinosu	-11.3975
▁Mah	-11.3975
▁strukturları	-11.3976
formasını	-11.3979
▁xəl	-11.3983
▁abbasın	-11.3987
Həkimlər	-11.3993
ekul	-11.3993
▁şikayətlərin	-11.3993
Link	-11.3994
▁nəqliyyatın	-11.3996
▁vizaları	-11.3999
▁yanacaqları	-11.4007
▁lal	-11.4015
▁çatmış	-11.4018
▁2009-	-11.4021
oko	-11.4021
▁ziyalılar	-11.4026
▁hücumları	-11.4027
▁bitkilər	-11.403
ous	-11.4032
▁şərəfini	-11.4036
hrə	-11.4038
▁şəkillərin	-11.4038
▁orqan	-11.4043
▁uğuru	-11.4046
▁borcun	-11.4051
▁avtobusun	-11.4054
▁Qüdsdə	-11.4057
▁rejim	-11.406
▁Adamlar	-11.4061
▁açdığı	-11.4068
▁yoldaşım	-11.407
▁oxumuş	-11.4075
əmimi	-11.408
▁Cəmiyyətdə	-11.4081
▁Şar	-11.4089
▁anlam	-11.4089
900	-11.4092
diyindən	-11.4095
▁alimlər	-11.41
▁qurula	-11.4101
▁başlanğıc	-11.4103
▁amillərin	-11.4103
obe	-11.4103
▁Bəş	-11.4118
▁odla	-11.4124
▁buyur	-11.4126
▁Qərarda	-11.4126
▁Düzü	-11.4142
▁saxlamağ	-11.4144
onna	-11.4154
▁hadisəsində	-11.4154
▁əmlakı	-11.4169
Tac	-11.4169
▁yarımçı	-11.4172
▁XI	-11.4172
kartla	-11.4179
▁zalın	-11.418
▁sistemlərin	-11.4199
▁Sərgisi	-11.4199
▁bö	-11.4207
bol	-11.4208
▁dəyişənin	-11.4209
▁təfəkkür	-11.4211
▁komp	-11.4214
uğu	-11.4217
▁veriliş	-11.4223
LDI	-11.4229
▁roman	-11.4229
49	-11.4236
▁Fər	-11.4236
▁Şeyl	-11.4237
▁əsaslan	-11.4241
yel	-11.4242
▁dindarlar	-11.4244
▁hündürlüyü	-11.4256
▁mexanizmləri	-11.4257
▁gəmisi	-11.4264
▁duyğuları	-11.4266
▁turda	-11.4271
▁misralar	-11.4282
şər	-11.4286
lerini	-11.4288
▁verilə	-11.429
▁qey	-11.4291
▁Hakimiyyət	-11.4301
▁qalxar	-11.4305
▁endir	-11.4313
▁nəsillər	-11.4316
▁82	-11.4319
▁Altı	-11.4322
ünüz	-11.4323
▁Diqqət	-11.4323
▁klip	-11.4323
▁reytinqi	-11.4326
▁çarəsi	-11.4328
▁anla	-11.4329
veni	-11.433
▁kameraları	-11.433
saydı	-11.4332
▁Art	-11.4336
▁imkanların	-11.4339
▁aydınlaşdır	-11.4344
Sənəd	-11.4345
▁açıqlaması	-11.4345
▁zədə	-11.4348
▁aylığı	-11.4356
▁təşəbbüsləri	-11.4357
▁yuvasın	-11.4358
▁00:3	-11.4358
▁yaralanı	-11.4362
▁Xalqımız	-11.4369
▁səadətin	-11.4376
▁62	-11.4377
▁öhdəlikləri	-11.4377
stanlı	-11.4386
▁zor	-11.4387
▁dayandırıl	-11.4395
kos	-11.4398
boy	-11.4401
▁tapır	-11.4413
▁sahəni	-11.4413
▁Rumıniyada	-11.4413
▁açılışını	-11.442
▁dolmuş	-11.4421
▁Qanunun	-11.4421
İT	-11.4424
▁Şirkət	-11.4426
▁xeyrin	-11.443
▁Riyaziyyat	-11.4431
▁həyatımız	-11.4432
▁muzdl	-11.4432
▁qeydiyyatı	-11.4436
▁ləl	-11.4452
ağır	-11.4452
▁dəyərlər	-11.4453
naməni	-11.4458
RU	-11.4459
▁xatirəsin	-11.4466
əzən	-11.4467
▁telefonun	-11.448
▁libas	-11.4483
▁əyalətin	-11.4488
jə	-11.449
▁Oyunu	-11.4494
▁duru	-11.4499
▁hücumun	-11.4504
▁zərd	-11.4507
sport	-11.4512
▁aparıldı	-11.4522
▁təbliğat	-11.4522
▁Tbilisidə	-11.4525
▁Tele	-11.4528
rac	-11.4532
▁mahnısını	-11.4538
▁sakin	-11.4538
▁olmu	-11.4542
▁müştəri	-11.4544
▁əsli	-11.4544
özün	-11.456
kol	-11.4565
▁2016-0	-11.4572
▁törədən	-11.4576
▁əski	-11.4576
▁axırın	-11.4578
▁tərkibini	-11.4584
▁ərazilərini	-11.4585
▁ödəyi	-11.4593
▁itirmə	-11.4601
▁şərtlərin	-11.4604
▁alətlər	-11.4613
quliyev	-11.4614
▁qanunları	-11.4618
▁çiçək	-11.4619
▁dialoq	-11.4619
▁Proqram	-11.4627
▁sualını	-11.4632
▁doğura	-11.4661
▁Ölən	-11.4668
▁məzənnəsini	-11.4669
▁Nov	-11.4673
▁hazırlaya	-11.4676
▁diyar	-11.4678
▁56	-11.468
▁abituriyentlər	-11.4681
▁dostluğun	-11.4682
▁inanma	-11.4686
▁ru	-11.4692
▁ittihamı	-11.4694
▁çatdırma	-11.4701
▁yetirilmə	-11.4705
▁avtobusu	-11.4707
▁standart	-11.4713
▁hazırlana	-11.4719
▁yəhudilər	-11.4731
təbər	-11.4731
▁terroru	-11.4732
▁xristian	-11.4734
▁Ub	-11.474
▁titrə	-11.4744
▁temperatur	-11.4753
▁dilləri	-11.4754
▁qələbəsin	-11.4759
▁torpaqların	-11.4763
▁göstərməy	-11.4763
▁içki	-11.4765
▁duyğular	-11.4766
bəyov	-11.4766
məkdədir	-11.4789
▁bazarın	-11.4789
▁şərtləndir	-11.4792
▁olmaları	-11.4794
▁araşdır	-11.4798
▁binaların	-11.4799
▁iddialar	-11.4802
▁yekunu	-11.4806
▁bitirmə	-11.481
axdığı	-11.4812
▁istintaqı	-11.4813
▁çıxışın	-11.4819
▁çıxdığı	-11.4822
Hü	-11.4827
▁qurğular	-11.4831
▁tənzimlənmə	-11.4833
ciklər	-11.4839
ilməz	-11.4843
▁təxribatı	-11.4845
▁gerçək	-11.4847
▁karyerası	-11.4848
▁serial	-11.4851
ləşdirilməsini	-11.4855
▁Əsədovu	-11.4861
▁qəzaların	-11.4864
ily	-11.4865
▁səhnələrin	-11.4865
▁internat	-11.4868
▁çəkilmə	-11.4872
▁asma	-11.4872
tmir	-11.4876
▁axırı	-11.4878
▁Yaralı	-11.4885
▁dükanlar	-11.4885
asiyası	-11.4888
▁quşu	-11.4891
▁AB	-11.4892
▁risk	-11.4893
▁cərəyanı	-11.4898
▁çevrilmə	-11.4898
ləndirməyə	-11.4907
▁tribuna	-11.4913
idor	-11.4917
▁keçidlər	-11.492
▁planları	-11.4923
▁İttifaq	-11.4924
▁Federasiya	-11.4925
xe	-11.4926
tdiyi	-11.4933
▁dinləyə	-11.4934
▁təlimlərin	-11.4937
▁doğra	-11.4942
▁kafedra	-11.4944
▁Fərq	-11.4946
▁Radiosu	-11.4949
▁Klub	-11.4954
▁Mətn	-11.4955
TB	-11.4956
▁qurultay	-11.4961
▁həsrətin	-11.4966
▁Partiya	-11.4967
Mast	-11.4968
▁Qurbanlı	-11.4974
uzluq	-11.4974
▁ayrılma	-11.4982
▁Deyir	-11.4982
▁peyğəmbər	-11.499
▁karyera	-11.4997
▁potensialını	-11.4998
dəcək	-11.4999
▁Nəriman	-11.5001
▁mükafatlandır	-11.5001
▁çətinləş	-11.5007
▁Mərd	-11.5013
▁briqada	-11.5013
eyhan	-11.5016
▁şeirləri	-11.502
▁göndərilmə	-11.5028
IB	-11.5029
▁səsləri	-11.5032
▁47	-11.5033
▁axtarı	-11.5035
▁mürəbbə	-11.5037
▁Müsahibimi	-11.5039
ərəfindən	-11.5049
▁Azeri	-11.5051
▁ödənil	-11.5052
▁oğru	-11.5054
▁13:3	-11.5055
ynan	-11.5055
▁perspektiv	-11.5056
▁nəzəriyyə	-11.5059
▁ağsu	-11.5063
dulla	-11.5064
▁dağıdıl	-11.5067
▁yayılmasını	-11.5075
▁fermer	-11.5078
▁telefonu	-11.5078
▁eşqi	-11.508
daşımız	-11.5081
▁Anceles	-11.5088
▁Sürücü	-11.509
▁genişləndir	-11.5091
▁nəşriyyat	-11.5091
▁həsrəti	-11.5094
▁66	-11.5099
▁müxbir	-11.5099
▁tədarükü	-11.5102
▁Olduq	-11.5113
▁bəyən	-11.5118
▁müavinət	-11.5121
▁suyunu	-11.5123
▁Xələf	-11.5125
günlü	-11.5126
▁Raf	-11.5129
▁verilməsini	-11.5129
▁verəcəyin	-11.5135
▁bağlama	-11.5139
qız	-11.514
▁nailiyyət	-11.5142
▁kitabxanası	-11.5143
yaşıl	-11.5145
▁futbolçuları	-11.5147
praktik	-11.5151
türk	-11.5153
texnologiyalar	-11.5154
Kaspi	-11.5154
Formula	-11.5154
otaqlı	-11.5154
▁Ştatlar	-11.5155
Zəhra	-11.5156
Göy	-11.5157
nəzəri	-11.5157
Qarşı	-11.5157
baxış	-11.5158
Astara	-11.5158
▁Məhsul	-11.5159
Com	-11.5159
Elektrik	-11.516
raket	-11.516
Pakistan	-11.5161
Tarix	-11.5161
Moskva	-11.5161
vətəndaş	-11.5161
Yaxın	-11.5161
kredit	-11.5163
terror	-11.5163
oğlan	-11.5163
Müdafiə	-11.5164
Əsəd	-11.5164
Qazax	-11.5164
yaşlı	-11.5164
cavab	-11.5164
Lakin	-11.5165
sovet	-11.5165
məxsus	-11.5165
Üç	-11.5166
▁soruşu	-11.5168
öyüş	-11.5169
EK	-11.5169
dəymə	-11.5174
▁elçi	-11.5175
-2016	-11.5177
mədəni	-11.5177
mənəvi	-11.518
Ümum	-11.518
▁Bos	-11.5182
çap	-11.5182
▁cəsarətlə	-11.5183
müəyyən	-11.5184
Rus	-11.5185
durur	-11.5192
adlarını	-11.5197
zaman	-11.5198
▁barış	-11.5198
seyid	-11.5199
▁Qoşun	-11.52
▁funksiyanı	-11.5203
baycan	-11.5207
▁oturacaq	-11.5207
Əmək	-11.5211
▁əyləşdi	-11.5214
▁qoşunlar	-11.5216
perator	-11.5219
acıq	-11.5221
▁dövriyyə	-11.5221
▁Stadi	-11.5231
OV	-11.5232
uğul	-11.5233
▁Fəlsəf	-11.5234
▁BU	-11.5235
▁bağlar	-11.524
▁dibi	-11.5243
▁Uc	-11.5254
▁bilməli	-11.5256
▁yayılma	-11.5256
▁Spam	-11.5259
məzdi	-11.5263
▁məhsuldar	-11.5263
varma	-11.5263
▁12:4	-11.5264
▁Tamaşa	-11.5268
mətdə	-11.527
▁üçü	-11.5272
▁keç	-11.5273
▁öhdə	-11.5273
▁yandı	-11.5275
mc	-11.5278
birini	-11.5282
▁yaraşı	-11.5288
fonu	-11.5289
uhi	-11.5289
▁saxlayır	-11.5292
▁73	-11.5293
▁bənzə	-11.5295
ct	-11.5296
▁abş	-11.5299
196	-11.5301
▁Deyil	-11.5302
▁kamil	-11.5303
qaya	-11.5306
Pİ	-11.5306
Görü	-11.5307
DİR	-11.5307
kişi	-11.5308
▁etiqad	-11.5311
▁mənzərə	-11.5311
▁versin	-11.5314
▁cav	-11.5314
▁mədə	-11.5314
▁tabeliyində	-11.5314
▁sualım	-11.5315
2017-	-11.5316
▁aparıb	-11.5318
▁sığ	-11.532
▁Sevgili	-11.5322
▁günahkar	-11.5323
▁çevr	-11.5323
xay	-11.5328
▁Kommers	-11.5328
▁İçi	-11.5329
▁eşşə	-11.5329
▁Fətəli	-11.5331
şad	-11.5332
üdcə	-11.5332
▁ehtiyatlar	-11.5332
▁şəffaf	-11.5332
▁yanım	-11.5334
▁doktor	-11.5336
▁izlər	-11.5337
əminat	-11.5337
▁Olimpiada	-11.5337
▁mağara	-11.5338
▁tənzimləy	-11.5339
▁yüksəldi	-11.5339
▁audit	-11.5339
əviyyəli	-11.534
ərbəst	-11.534
əşəkkür	-11.5342
▁xiyaban	-11.5343
▁turşu	-11.5343
▁təəccüb	-11.5343
lassik	-11.5343
▁federa	-11.5343
lastik	-11.5344
▁lokal	-11.5344
ığıncaq	-11.5344
alyuta	-11.5344
press	-11.5344
▁qorxdu	-11.5344
pidemi	-11.5344
udio	-11.5344
▁bütövlüyü	-11.5344
▁Konsul	-11.5344
▁voleybol	-11.5344
▁darıx	-11.5345
▁kvadrat	-11.5345
▁əsəb	-11.5345
batından	-11.5345
▁diaqno	-11.5345
Science	-11.5345
▁Ağstafa	-11.5345
▁bütövlük	-11.5345
▁sıxışdırıl	-11.5345
▁sıçra	-11.5345
Danimarka	-11.5345
▁FIFA	-11.5345
▁Marneuli	-11.5345
▁daşıyıcı	-11.5345
▁fenomen	-11.5345
▁konvensiya	-11.5345
▁qoşuldu	-11.5345
▁sovxoz	-11.5345
▁sıfır	-11.5345
▁ötüşmə	-11.5345
Beşiktaş	-11.5345
Bursaspor	-11.5345
Fatimeyi	-11.5345
Fənərbaxça	-11.5345
Həbsdə	-11.5345
Kopenhagen	-11.5345
Mercedes	-11.5345
Reuters	-11.5345
Strategiya	-11.5345
Twitter	-11.5345
Valideynlər	-11.5345
Velosiped	-11.5345
Vorskla	-11.5345
Zhirinovsky	-11.5345
ZİRVƏ	-11.5345
enecment	-11.5345
leytenant	-11.5345
montaj	-11.5345
spiker	-11.5345
sponsor	-11.5345
İskəndər	-11.5345
Şotlandiya	-11.5345
ƏCƏK	-11.5345
ƏQİQƏ	-11.5345
▁Axirət	-11.5345
▁Balotelli	-11.5345
▁Başlanğıc	-11.5345
▁Bilmirəm	-11.5345
▁Bitcoin	-11.5345
▁DSMF	-11.5345
▁Depatamenti	-11.5345
▁Estetik	-11.5345
▁Etiket	-11.5345
▁Excel	-11.5345
▁Fikrimcə	-11.5345
▁Firefox	-11.5345
▁FƏRMAN	-11.5345
▁HAQQINDA	-11.5345
▁KTMT	-11.5345
▁Klinton	-11.5345
▁Konte	-11.5345
▁Konvensiya	-11.5345
▁Koordina	-11.5345
▁Kriştian	-11.5345
▁Köç	-11.5345
▁Külək	-11.5345
▁Kürçaylı	-11.5345
▁Lukaşenko	-11.5345
▁Lütf	-11.5345
▁Maarif	-11.5345
▁Meksika	-11.5345
▁Monteneqro	-11.5345
▁Mussolini	-11.5345
▁MİLYON	-11.5345
▁NASA	-11.5345
▁Pizza	-11.5345
▁Qəsəbə	-11.5345
▁Redaktor	-11.5345
▁STATİSTİKA	-11.5345
▁Standart	-11.5345
▁Suraxanı	-11.5345
▁Sərkisyan	-11.5345
▁Texno	-11.5345
▁Tövsiyə	-11.5345
▁TƏFƏRRÜAT	-11.5345
▁Təcnis	-11.5345
▁Unibank	-11.5345
▁VoicePress	-11.5345
▁Xızı	-11.5345
▁Xəlifə	-11.5345
▁YALAN	-11.5345
▁Zəhmətkeş	-11.5345
▁anlaşılır	-11.5345
▁aviaşirkət	-11.5345
▁boykot	-11.5345
▁britaniyalı	-11.5345
▁bölgüsü	-11.5345
▁bünövrə	-11.5345
▁cazibə	-11.5345
▁cərgə	-11.5345
▁devalvasiya	-11.5345
▁doğulur	-11.5345
▁dönüş	-11.5345
▁fabrik	-11.5345
▁fantastik	-11.5345
▁görünüş	-11.5345
▁iftixar	-11.5345
▁inkuba	-11.5345
▁komediya	-11.5345
▁korporasiyası	-11.5345
▁makiyaj	-11.5345
▁murtuz	-11.5345
▁müşayiət	-11.5345
▁məhərrəmov	-11.5345
▁mətbəə	-11.5345
▁məvacib	-11.5345
▁nəhayət	-11.5345
▁oksigen	-11.5345
▁pozuntusu	-11.5345
▁qorxmur	-11.5345
▁qəflət	-11.5345
▁qəzvin	-11.5345
▁sionist	-11.5345
▁toqquşdu	-11.5345
▁tüfəng	-11.5345
▁təfsir	-11.5345
▁təşviş	-11.5345
▁videoçarx	-11.5345
▁yamacların	-11.5345
▁yuyub	-11.5345
▁Çikaqo	-11.5345
▁çırpılıb	-11.5345
▁İdxal	-11.5345
▁İşgəncə	-11.5345
▁Şeytan	-11.5345
▁Şirəliyev	-11.5345
▁şturman	-11.5345
▁şüurun	-11.5345
▁şəhriyar	-11.5345
▁Əcnəbi	-11.5345
▁Əlyazma	-11.5345
▁Əzəmət	-11.5345
▁əməkhaqqı	-11.5345
▁əyalətlər	-11.5345
Dəyişən	-11.5345
Mövlayev	-11.5345
Mühəndis	-11.5345
Politika	-11.5345
eneqal	-11.5345
mexanik	-11.5345
tənzimləmə	-11.5345
zdiham	-11.5345
Çağrı	-11.5345
▁ADİU	-11.5345
▁Abramoviç	-11.5345
▁Atmosfer	-11.5345
▁Bacarıq	-11.5345
▁Bacım	-11.5345
▁Kompüter	-11.5345
▁Kreml	-11.5345
▁Kömək	-11.5345
▁Lökbatan	-11.5345
▁MTRŞ	-11.5345
▁Mükəmməl	-11.5345
▁Müqavilə	-11.5345
▁Məbəd	-11.5345
▁Normal	-11.5345
▁PEN	-11.5345
▁REAL	-11.5345
▁Spayser	-11.5345
▁Təzəpir	-11.5345
▁Vektormap	-11.5345
▁aleksandr	-11.5345
▁bloqer	-11.5345
▁dinlənilib	-11.5345
▁düzümləri	-11.5345
▁fahişə	-11.5345
▁fəsadlar	-11.5345
▁irəvan	-11.5345
▁mühasibat	-11.5345
▁məyus	-11.5345
▁nağıyev	-11.5345
▁oykonim	-11.5345
▁reyslər	-11.5345
▁sevindiricidir	-11.5345
▁uydurma	-11.5345
▁yarımmüdafiəçi	-11.5345
▁zeynal	-11.5345
▁çaqqal	-11.5345
▁öyrənilməsin	-11.5345
▁İstedad	-11.5345
▁Şərbət	-11.5345
▁şərbət	-11.5345
▁əzmkar	-11.5345
-10-18	-11.5345
AzMİU	-11.5345
papaq	-11.5345
ramaturq	-11.5345
▁Bəzirgan	-11.5345
▁Cərimə	-11.5345
▁Maqomayev	-11.5345
▁Mülayim	-11.5345
▁Qaçqınlar	-11.5345
▁Törə	-11.5345
▁Təqva	-11.5345
▁Xoşqədəmin	-11.5345
▁bəhram	-11.5345
▁evakua	-11.5345
▁isveç	-11.5345
▁lətif	-11.5345
▁möcüzə	-11.5345
▁Çevik	-11.5345
Zəhmət	-11.5345
▁BƏƏ	-11.5345
▁City	-11.5345
▁Narkotik	-11.5345
▁Rəşid	-11.5345
▁heyrətləndir	-11.5345
▁natiq	-11.5345
▁təriqət	-11.5345
▁vəliəhd	-11.5345
1990)	-11.5345
Simurq	-11.5345
pərəst	-11.5345
Şıxlı	-11.5345
▁Nağd	-11.5345
▁Uels	-11.5345
▁Vəziyyət	-11.5345
▁kutilər	-11.5345
▁mazut	-11.5345
▁super	-11.5345
▁yasəmən	-11.5345
▁öldürmək	-11.5345
SAS	-11.5345
Sipark	-11.5345
▁Həyətdə	-11.5345
▁Press	-11.5345
▁Sürət	-11.5345
▁artırıldı	-11.5345
▁diktator	-11.5345
▁gəzinti	-11.5345
▁ovqatı	-11.5345
▁Ödəniş	-11.5345
▁çıxıntı	-11.5345
▁şəriət	-11.5345
▁ƏLA	-11.5345
CAVAB	-11.5345
İdlib	-11.5345
▁Analitik	-11.5345
▁Həşimov	-11.5345
▁Planet	-11.5345
▁Tərəzi	-11.5345
stronomi	-11.5345
▁Boynun	-11.5345
▁Düşənbə	-11.5345
▁mümkündürmü	-11.5345
▁müəyyənləşdirib	-11.5345
▁oğuz	-11.5345
▁uğrayıb	-11.5345
▁yarımadasını	-11.5345
▁əsatir	-11.5345
lovakiya	-11.5345
▁Qartal	-11.5345
▁Raket	-11.5345
▁bataqlı	-11.5345
▁batum	-11.5345
▁investorları	-11.5345
▁kataloq	-11.5345
▁12:50	-11.5345
▁19:50	-11.5345
▁aşıx	-11.5345
▁effektiv	-11.5345
▁seyf	-11.5345
▁səfəvi	-11.5345
▁yarışmasında	-11.5345
▁başlanacaq	-11.5345
▁Əfsanə	-11.5345
▁Savalan	-11.5345
▁Zərər	-11.5345
▁reysi	-11.5345
▁batıb	-11.5345
▁hovuz	-11.5345
▁körpüsün	-11.5345
▁Təhlili	-11.5345
▁Unut	-11.5345
▁mebel	-11.5345
▁qəfəs	-11.5345
▁rels	-11.5345
▁Elnarə	-11.5345
▁Plaza	-11.5345
▁utana	-11.5345
Telegram	-11.5345
▁özülün	-11.5345
Neymar	-11.5345
▁avara	-11.5345
▁İmza	-11.5345
▁23:00	-11.5345
▁ARB	-11.5345
▁barama	-11.5345
▁20:11	-11.5345
▁Tere	-11.5345
▁xeyirxah	-11.5345
▁fəslin	-11.5345
▁səttar	-11.5345
Şahdəniz	-11.5345
▁Məşhəd	-11.5345
▁çarlığı	-11.5345
▁Haiti	-11.5345
▁Kasıb	-11.5345
▁hindistan	-11.5345
▁Qazeta	-11.5345
kott	-11.5345
▁Salman	-11.5345
▁Satış	-11.5345
▁TAP	-11.5345
▁paketləri	-11.5345
▁manevr	-11.5345
▁AMB	-11.5345
▁ANSPRESS	-11.5345
▁yanğınsöndürən	-11.5345
▁gileylən	-11.5345
▁mənsəb	-11.5345
▁ART	-11.5345
▁Aşiq	-11.5345
▁Demokratiya	-11.5345
▁Soğan	-11.5345
▁öpü	-11.5345
Fotoqrafiya	-11.5345
▁foyeni	-11.5345
▁qəlib	-11.5345
▁sadıq	-11.5345
▁paketin	-11.5345
▁Papa	-11.5345
▁arxayın	-11.5345
▁göylər	-11.5345
▁sidik	-11.5345
▁xəndək	-11.5345
▁xərci	-11.5345
▁göydə	-11.5345
▁zibil	-11.5345
▁şüar	-11.5345
▁təqaüdçüsü	-11.5346
▁başlanmışdır	-11.5346
▁ABAD	-11.5346
▁məhdudlaşmır	-11.5346
▁yarar	-11.5346
ssem	-11.5346
▁yaradacaq	-11.5346
▁Senatın	-11.5346
▁Şahverdiyev	-11.5346
▁Sadiq	-11.5346
▁haqsızlıq	-11.5346
▁Xaqan	-11.5346
▁Yuxuda	-11.5346
▁ciimla	-11.5346
▁Öncə	-11.5346
▁Otaq	-11.5346
▁koloniya	-11.5346
▁Bahar	-11.5346
▁göstərilməlidir	-11.5346
▁çeynə	-11.5346
▁Qəza	-11.5346
ULA	-11.5346
▁sinonim	-11.5346
▁işıqlandırılır	-11.5346
▁qarışdırın	-11.5346
▁qisas	-11.5346
▁qitə	-11.5346
ƏSM	-11.5346
▁oyandı	-11.5346
▁təsəvvü	-11.5346
▁tıklayın	-11.5346
Xəmsə	-11.5346
▁xüsusiyyəti	-11.5346
▁Musabəyov	-11.5346
▁virus	-11.5346
▁psixiatr	-11.5346
▁qavra	-11.5346
▁Axtardığı	-11.5346
▁Şirvanşah	-11.5346
▁notaria	-11.5346
▁unudur	-11.5346
politik	-11.5346
▁müəmma	-11.5346
inform	-11.5346
▁Xvii	-11.5346
▁xronikası	-11.5346
▁spesifik	-11.5346
YENİLƏNDİ	-11.5346
▁Vallah	-11.5346
▁bəlalar	-11.5346
▁ödəyicilərin	-11.5346
▁kraliça	-11.5346
▁Maksim	-11.5346
▁Sərdar	-11.5346
▁Slav	-11.5346
▁ÜAK	-11.5346
eyerler	-11.5346
qurşaq	-11.5346
▁Vasitə	-11.5346
▁vurulmuş	-11.5346
▁üsyan	-11.5346
▁Məhəllə	-11.5346
▁cilalanmış	-11.5346
▁Geyim	-11.5346
▁ödəmir	-11.5346
▁Tag	-11.5346
▁psixologiya	-11.5346
▁çərpələng	-11.5346
▁zərərçək	-11.5346
▁Çirk	-11.5346
▁Mənsimov	-11.5346
▁Usey	-11.5346
▁BÖYÜ	-11.5347
▁Limit	-11.5347
▁bəxtə	-11.5347
RUH	-11.5347
▁blokada	-11.5347
▁Hacıbəyov	-11.5347
▁Teleradio	-11.5347
▁Nino	-11.5347
▁Qabağın	-11.5347
▁qəssab	-11.5347
▁izləyib	-11.5347
▁bələdiyyə	-11.5347
▁14:50	-11.5347
▁cinsiyyət	-11.5347
▁gəlmisən	-11.5347
▁Məşvərət	-11.5347
▁Soltan	-11.5347
▁unutmur	-11.5347
▁dırnaq	-11.5347
▁yığıncaq	-11.5347
▁tanıtm	-11.5347
▁stalin	-11.5347
▁edilməyib	-11.5347
▁qoyuluş	-11.5347
▁moda	-11.5347
▁Metod	-11.5347
▁mənəviyyatına	-11.5347
▁itirmişdir	-11.5347
▁olacağam	-11.5347
▁xərcləyib	-11.5347
▁Məlikova	-11.5347
▁ABC	-11.5347
▁Səbəb	-11.5347
▁yetirilib	-11.5347
orpora	-11.5347
▁vurğuladı	-11.5347
▁qayıdarkən	-11.5347
▁təkərlər	-11.5347
▁Cüdoçuları	-11.5347
▁analoqu	-11.5347
linski	-11.5347
enzura	-11.5347
Full	-11.5347
▁Quyu	-11.5347
▁heş	-11.5347
analitik	-11.5347
▁tikan	-11.5347
▁dinlənilmiş	-11.5348
▁bag	-11.5348
▁oxuyun	-11.5348
▁ABB	-11.5348
▁Zorla	-11.5348
▁etməliyik	-11.5348
qrəb	-11.5348
▁GÜN	-11.5348
▁mineral	-11.5348
▁Süleymanova	-11.5348
▁mərcan	-11.5348
▁Qafar	-11.5348
▁Malala	-11.5348
▁təəssüratlarını	-11.5348
▁xiyar	-11.5348
▁çöl	-11.5348
▁Yaylaq	-11.5348
▁smartfonunu	-11.5348
▁olmalıydı	-11.5348
▁mükafatçısı	-11.5348
▁saldo	-11.5348
▁bəbir	-11.5348
▁nəticələnib	-11.5348
▁agentliklər	-11.5348
▁sayğacların	-11.5348
▁qəbristanlı	-11.5348
▁əkinçilik	-11.5348
Mülki	-11.5348
▁təala	-11.5348
▁boşluqlar	-11.5348
▁Ənənəvi	-11.5348
▁york	-11.5348
çülük	-11.5348
həzrət	-11.5349
atmır	-11.5349
▁əbu	-11.5349
▁düşmüşdür	-11.5349
▁növüdür	-11.5349
▁qoruyucusu	-11.5349
▁yayılır	-11.5349
▁izləyin	-11.5349
▁Məcid	-11.5349
▁yuma	-11.5349
▁iblis	-11.5349
▁kartları	-11.5349
onez	-11.5349
▁Rəhmət	-11.5349
▁Xəta	-11.5349
ginekolo	-11.5349
▁bitən	-11.5349
▁yaralanmışdı	-11.5349
▁uçurum	-11.5349
▁marağa	-11.5349
▁əyilib	-11.5349
▁eliyir	-11.535
▁Mebel	-11.535
▁keçərək	-11.535
▁eşidib	-11.535
ÜN	-11.535
▁iranlılar	-11.535
▁almır	-11.535
▁Cəb	-11.535
▁mömin	-11.535
▁doğuş	-11.535
▁buraxacaq	-11.535
▁fərqləndirə	-11.535
▁bacarma	-11.535
▁geyindiyi	-11.535
.07.201	-11.535
▁tələsdi	-11.535
Royal	-11.535
▁toğrul	-11.535
▁xoşlayır	-11.535
▁aqra	-11.535
▁nizamnamə	-11.535
▁ağlamağa	-11.535
▁əsəbiləş	-11.5351
▁narınc	-11.5351
▁Criminal	-11.5351
aumyan	-11.5351
▁bacardı	-11.5351
xrac	-11.5351
▁ölçülmə	-11.5351
▁demirəm	-11.5351
▁yağacağı	-11.5351
▁qəpi	-11.5351
▁Right	-11.5351
▁dəyişəcək	-11.5351
▁okt	-11.5351
▁maraqlanıb	-11.5351
▁kədərləndi	-11.5351
▁xof	-11.5351
▁idarəçiliyi	-11.5351
▁salınır	-11.5351
▁Suyun	-11.5351
▁gedim	-11.5351
▁yeyir	-11.5351
▁Məktəblilər	-11.5352
eksiya	-11.5352
▁dayanıqlı	-11.5352
▁Amil	-11.5352
▁gördüyünü	-11.5352
▁fəryad	-11.5352
▁10:00	-11.5352
▁yarışacaq	-11.5352
▁Qasim	-11.5352
giye	-11.5352
▁vəsf	-11.5352
▁yüksəlməsi	-11.5352
▁minarə	-11.5352
▁dəyişdirilib	-11.5352
▁satılıb	-11.5352
▁duyur	-11.5352
Ferr	-11.5352
▁alqış	-11.5352
▁təhlükəsiz	-11.5353
▁atılıb	-11.5353
▁genişlənmişdi	-11.5353
▁qiymətləndirib	-11.5353
adze	-11.5353
▁Lui	-11.5353
▁Bacısı	-11.5353
rnament	-11.5353
▁Parla	-11.5353
▁İslamabad	-11.5354
▁departament	-11.5354
▁ssenarist	-11.5354
▁çadır	-11.5354
▁törədilib	-11.5354
▁çıxarılmış	-11.5354
eyvandarlıq	-11.5354
▁Qriqorçuku	-11.5354
▁tutulduğu	-11.5354
künlərin	-11.5354
▁Qulağı	-11.5354
▁Kem	-11.5354
▁içmir	-11.5354
▁toxumaları	-11.5354
▁satıcı	-11.5354
▁məfkurəsi	-11.5355
▁17:09	-11.5355
▁uçmaq	-11.5355
▁xəbərdarlığı	-11.5355
▁16:56	-11.5355
▁cərimələndi	-11.5355
▁çəkmişəm	-11.5355
▁cansız	-11.5355
▁Bayır	-11.5355
▁qaçış	-11.5355
▁sandığı	-11.5356
DÜ	-11.5356
▁Karvan	-11.5356
▁Yayım	-11.5356
▁kreditləşmə	-11.5356
▁dalaşdı	-11.5356
▁çağırıldı	-11.5356
səydi	-11.5356
▁gəzib	-11.5356
▁olaydı	-11.5356
▁12:10	-11.5356
▁16:45	-11.5357
▁reallıqlar	-11.5357
▁sürücünü	-11.5357
1-19	-11.5357
▁mənimsəmə	-11.5357
▁Heye	-11.5357
▁15:08	-11.5357
▁12:29	-11.5357
▁verməmək	-11.5358
▁Ölüm	-11.5358
▁Əməli	-11.5358
▁Bayaq	-11.5358
▁Ceyran	-11.5358
əhlul	-11.5358
▁Inc	-11.5358
uluzadə	-11.5358
▁olunacağı	-11.5358
▁çıxarmışdır	-11.5358
▁teymur	-11.5358
▁10:15	-11.5358
▁səyyad	-11.5359
▁14:04	-11.5359
▁Sevil	-11.5359
▁öldürül	-11.5359
▁gedərsən	-11.5359
▁səsləyir	-11.5359
▁Kenned	-11.5359
▁Emal	-11.536
▁Qulam	-11.536
▁Röv	-11.536
▁hərbiçiləri	-11.536
▁ayırmaq	-11.536
▁kansleri	-11.536
▁meneceri	-11.536
▁anlamaq	-11.536
▁14:36	-11.536
▁yaylağ	-11.536
lyator	-11.536
pris	-11.5361
▁Həriri	-11.5361
▁Massa	-11.5361
▁reyd	-11.5361
▁DOST	-11.5361
▁Divan	-11.5361
▁nazirliklər	-11.5361
inflyasiya	-11.5361
▁İnnovasiya	-11.5362
Seltik	-11.5362
▁Hacızadə	-11.5362
▁13:13	-11.5362
▁15:15	-11.5362
▁13:55	-11.5362
▁bəxti	-11.5363
▁şərik	-11.5363
▁nyu	-11.5363
▁Sevgiliniz	-11.5363
▁qaldırır	-11.5363
▁nəğmə	-11.5363
▁ildönümünü	-11.5363
▁Aliment	-11.5363
▁etdirməy	-11.5363
▁15:10	-11.5364
▁beton	-11.5364
▁Səhnə	-11.5364
▁çərçivə	-11.5364
füq	-11.5364
▁tanıyıram	-11.5364
▁gəzdirdi	-11.5364
▁14:30	-11.5364
▁sabir	-11.5365
▁rahatlığı	-11.5365
▁Lap	-11.5365
ussiya	-11.5365
▁İstehsalatda	-11.5365
▁dəvəçi	-11.5365
▁Əməyi	-11.5366
▁Sultanov	-11.5366
▁Sakinlər	-11.5366
şənbə	-11.5366
▁qalsa	-11.5366
▁seçib	-11.5367
▁bağrım	-11.5367
▁şika	-11.5367
▁kənarları	-11.5368
▁doldurul	-11.5368
▁məhsuldur	-11.5368
▁tayfalarından	-11.5368
çası	-11.5368
▁görünməyə	-11.5369
▁qazandırdı	-11.5369
▁Almeyda	-11.5369
▁sevirəm	-11.5369
▁18:53	-11.537
▁eksp	-11.537
▁Bayan	-11.537
▁edilməyə	-11.5371
itirdiyi	-11.5371
▁Tarzanı	-11.5372
▁yanıl	-11.5372
tron	-11.5372
yarmarka	-11.5372
▁yazmağı	-11.5372
▁şimalında	-11.5373
▁Vəfa	-11.5373
ics	-11.5373
▁dövranı	-11.5373
▁yığımlar	-11.5373
uzey	-11.5374
▁müsa	-11.5374
▁Məş	-11.5374
▁didər	-11.5374
▁satıldı	-11.5374
▁yaradıcısı	-11.5375
▁qoşula	-11.5375
iyyətli	-11.5375
▁Abş	-11.5376
▁gəlirsə	-11.5376
▁bəyənib	-11.5376
▁almışam	-11.5377
▁tellər	-11.5377
▁sərvətləri	-11.5377
▁ağsaqqalı	-11.5378
▁çəkilmək	-11.5378
▁bölüşdü	-11.5378
▁Marian	-11.5378
▁Müh	-11.5378
▁Badamdar	-11.5378
▁Təcrübə	-11.5378
▁cəhənnəm	-11.5378
▁Düşmən	-11.5378
▁Malayziya	-11.5378
▁cabbar	-11.5378
itler	-11.5378
▁Məscid	-11.5378
▁məmulatı	-11.5379
▁etibarsız	-11.5379
▁tikib	-11.5379
▁met	-11.5379
1980)	-11.538
▁məx	-11.538
▁versinlər	-11.5381
up	-11.5381
uşaq	-11.5382
▁sıxıntı	-11.5382
▁inanc	-11.5382
yyətə	-11.5382
▁surəsi	-11.5382
▁xort	-11.5382
▁yeniləyib	-11.5382
▁nəzarətçi	-11.5382
▁İstehlakçı	-11.5383
▁unuda	-11.5383
▁tullan	-11.5383
▁etmişik	-11.5384
▁çax	-11.5384
▁içib	-11.5384
▁yanıb	-11.5384
sakan	-11.5384
▁yığan	-11.5385
▁Həl	-11.5385
▁səngər	-11.5385
▁BAN	-11.5387
▁halay	-11.5387
▁pod	-11.5388
▁Saatlı	-11.5389
▁Fərdi	-11.5389
▁MÜ	-11.5389
▁neçəyədir	-11.5389
▁Usu	-11.539
war	-11.539
ttin	-11.5391
▁Məc	-11.5391
▁ətir	-11.5391
▁şeytan	-11.5391
▁dərsliklər	-11.5391
Zey	-11.5391
Meydança	-11.5392
▁salındı	-11.5392
laşmır	-11.5392
ükan	-11.5393
▁Proqramlar	-11.5393
▁etdirmişdir	-11.5393
▁Əmimi	-11.5394
▁sevgilin	-11.5394
▁xarakterik	-11.5395
▁itirir	-11.5395
▁rəngində	-11.5395
▁tabeliyin	-11.5396
beh	-11.5397
▁Əfəndiyevi	-11.5397
▁IX	-11.5397
DK	-11.5398
▁çek	-11.5399
▁fiqhi	-11.5399
▁vermişdik	-11.5399
misiniz	-11.5399
▁faydalıdır	-11.54
▁əməllərdən	-11.54
▁Hos	-11.54
▁Silva	-11.5401
▁Zöhr	-11.5402
▁Daxil	-11.5402
▁Ağlın	-11.5402
rxiv	-11.5403
▁içim	-11.5403
▁məlik	-11.5404
ırtma	-11.5404
▁qucaqladı	-11.5404
▁Yev	-11.5404
▁narazılığı	-11.5404
▁Rəhbərlik	-11.5404
▁Sevgilisi	-11.5405
▁milis	-11.5406
▁görməyə	-11.5407
▁PR	-11.5407
İki	-11.5408
▁dəyişməz	-11.5408
▁bilməyəcəklər	-11.5409
▁İbrahimovu	-11.541
▁Hol	-11.5411
▁Varlı	-11.5411
▁ağıllı	-11.5411
Gördü	-11.5411
▁dostlarım	-11.5412
▁yaşayıram	-11.5412
▁Həddin	-11.5413
▁əqli	-11.5413
▁qərarsız	-11.5413
▁milyonçu	-11.5414
▁səmimiyyət	-11.5415
▁alıram	-11.5416
şov	-11.5416
▁deməyə	-11.5416
▁Çen	-11.5416
▁qəsdən	-11.5416
▁komandanlığı	-11.5416
▁aparacaq	-11.5417
▁mama	-11.5417
İş	-11.5419
▁standartlar	-11.5419
Qaidə	-11.542
sızlıq	-11.542
hidro	-11.5421
▁Müvə	-11.5423
▁fənlər	-11.5424
ayız	-11.5424
pad	-11.5426
iravan	-11.5426
▁tran	-11.5429
▁qarşısındakı	-11.543
▁terminlər	-11.543
▁gəldiyini	-11.5431
▁babam	-11.5432
▁179	-11.5432
▁qardaşlıq	-11.5433
ew	-11.5434
▁hazırlanmışdır	-11.5435
▁FAKT	-11.5435
▁Natəvan	-11.5436
▁Mübarək	-11.5436
▁Qələbə	-11.5436
▁vurulması	-11.5436
▁yuyucu	-11.5436
▁Müxalifət	-11.5436
▁əsarət	-11.5436
▁deməyi	-11.5436
3,8	-11.5437
▁verməli	-11.5437
▁İnstagram	-11.5438
▁yerləşdirilməs	-11.544
ezliklə	-11.544
▁Trans	-11.544
▁əyilmə	-11.5441
ölçülü	-11.5442
▁44	-11.5442
▁vicdanı	-11.5443
▁ağlın	-11.5444
▁bağçasın	-11.5448
▁deyilsə	-11.5448
▁salamat	-11.5449
▁maraqların	-11.545
▁5.6	-11.5451
▁zədəli	-11.5455
▁yoxlamaq	-11.5455
▁Suri	-11.5456
▁Dəyişiklik	-11.5456
▁yatar	-11.5458
▁Fəlsəfə	-11.5458
doqo	-11.546
MT	-11.5461
▁qolla	-11.5461
dilir	-11.5463
aryera	-11.5463
▁təkrarlan	-11.5464
▁verməyəcək	-11.5466
▁əsasıdır	-11.5466
▁edəsən	-11.5466
▁inandır	-11.5466
mayacaqlar	-11.5468
▁İza	-11.5468
bəkir	-11.5469
▁daxma	-11.5469
▁yaşını	-11.5469
yiniz	-11.5469
ident	-11.547
▁möhkəmlənməsi	-11.547
▁ünvanını	-11.5471
▁əcə	-11.5471
▁nümunədir	-11.5472
▁çıxardar	-11.5473
▁törətmə	-11.5474
▁yoludur	-11.5476
sor	-11.5476
▁4-5	-11.5477
▁Boyu	-11.5478
▁qurtardı	-11.5479
▁Mədə	-11.5479
▁işləyirlər	-11.5481
▁yarandıqda	-11.5483
▁köçü	-11.5484
▁blokun	-11.5485
640	-11.5485
▁fərqləndirmə	-11.5485
▁xristianlar	-11.5486
▁amillərdən	-11.5488
▁sens	-11.549
Deyilən	-11.5491
▁Maddə	-11.5492
▁enən	-11.5494
▁Xam	-11.5495
▁əməliyyatın	-11.5495
▁haça	-11.5497
▁şirkətlə	-11.5498
▁ödənişli	-11.5501
▁2017-05-0	-11.5501
▁2000-	-11.5502
daşlarından	-11.5504
▁Cins	-11.5505
▁sildi	-11.5506
▁Müslümov	-11.5508
▁Mask	-11.5509
▁olunmaq	-11.5509
▁İmr	-11.551
▁getmirdi	-11.551
▁Yaşayan	-11.5511
Baltik	-11.5511
qav	-11.5515
▁Hərəsi	-11.5516
▁tikilir	-11.5517
▁idmançılarımız	-11.5517
▁edilməmiş	-11.5518
▁həzm	-11.5518
▁Ape	-11.5524
▁kəşfiyyatçıları	-11.5525
▁1997	-11.5525
▁dönəm	-11.5526
▁vəziri	-11.5526
▁aldad	-11.5528
▁muxtarov	-11.5528
oqrafiya	-11.5529
▁təhlükəlidir	-11.5529
▁qəbiristanlığın	-11.5532
▁qarşılığı	-11.5534
▁vermədən	-11.5534
▁deyirdilər	-11.5535
▁işıqlı	-11.5536
rənc	-11.5537
▁yaranma	-11.5537
▁deyilmi	-11.5537
oğrudur	-11.5538
▁şirkətimiz	-11.5539
Dodaq	-11.5539
▁bədənində	-11.554
skal	-11.554
▁sifətində	-11.5541
Bre	-11.5543
▁bəyanatla	-11.5546
▁1949	-11.5547
▁lazımdı	-11.5548
bala	-11.5552
▁kənarlaşdırıl	-11.5553
▁ağırlıq	-11.5553
▁miqrasiyası	-11.5555
▁poeziyası	-11.5556
▁olacağıq	-11.5557
▁1948	-11.5558
▁38-	-11.556
Davudoğlu	-11.5562
▁getməyim	-11.5562
lxoz	-11.5565
▁vermirlər	-11.5565
▁Xanlar	-11.5568
▁etməsidir	-11.5569
▁Xələfov	-11.557
▁Rem	-11.5571
old	-11.5572
▁səfirliklər	-11.5574
▁yoldaşıdır	-11.5575
▁idxalın	-11.5576
▁oğlanları	-11.5577
▁bölgənin	-11.5578
məsləhətləşmələr	-11.558
ubiley	-11.5586
▁tutun	-11.5586
▁gətirdilər	-11.5587
▁bəzədilmiş	-11.5589
▁gündəliy	-11.5589
▁fırtınası	-11.5589
▁Nənəm	-11.559
▁1,9	-11.5591
▁kapitalı	-11.5591
sikl	-11.5591
▁döyül	-11.5592
[...]
